{
  "version": "1.0",
  "truncation": null,
  "padding": null,
  "added_tokens": [
    {
      "id": 0,
      "content": "[UNK]",
      "single_word": false,
      "lstrip": false,
      "rstrip": false,
      "normalized": false,
      "special": true
    },
    {
      "id": 1,
      "content": "[CLS]",
      "single_word": false,
      "lstrip": false,
      "rstrip": false,
      "normalized": false,
      "special": true
    },
    {
      "id": 2,
      "content": "[SEP]",
      "single_word": false,
      "lstrip": false,
      "rstrip": false,
      "normalized": false,
      "special": true
    },
    {
      "id": 3,
      "content": "[PAD]",
      "single_word": false,
      "lstrip": false,
      "rstrip": false,
      "normalized": false,
      "special": true
    },
    {
      "id": 4,
      "content": "[MASK]",
      "single_word": false,
      "lstrip": false,
      "rstrip": false,
      "normalized": false,
      "special": true
    }
  ],
  "normalizer": null,
  "pre_tokenizer": {
    "type": "Whitespace"
  },
  "post_processor": null,
  "decoder": null,
  "model": {
    "type": "BPE",
    "dropout": null,
    "unk_token": "[UNK]",
    "continuing_subword_prefix": null,
    "end_of_word_suffix": null,
    "fuse_unk": false,
    "byte_fallback": false,
    "ignore_merges": false,
    "vocab": {
      "[UNK]": 0,
      "[CLS]": 1,
      "[SEP]": 2,
      "[PAD]": 3,
      "[MASK]": 4,
      "!": 5,
      "\"": 6,
      "#": 7,
      "$": 8,
      "%": 9,
      "&": 10,
      "'": 11,
      "(": 12,
      ")": 13,
      "*": 14,
      "+": 15,
      ",": 16,
      "-": 17,
      ".": 18,
      "/": 19,
      "0": 20,
      "1": 21,
      "2": 22,
      "3": 23,
      "4": 24,
      "5": 25,
      "6": 26,
      "7": 27,
      "8": 28,
      "9": 29,
      ":": 30,
      ";": 31,
      "<": 32,
      "=": 33,
      ">": 34,
      "?": 35,
      "@": 36,
      "A": 37,
      "B": 38,
      "C": 39,
      "D": 40,
      "E": 41,
      "F": 42,
      "G": 43,
      "H": 44,
      "I": 45,
      "J": 46,
      "K": 47,
      "L": 48,
      "M": 49,
      "N": 50,
      "O": 51,
      "P": 52,
      "Q": 53,
      "R": 54,
      "S": 55,
      "T": 56,
      "U": 57,
      "V": 58,
      "W": 59,
      "X": 60,
      "Y": 61,
      "Z": 62,
      "[": 63,
      "\\": 64,
      "]": 65,
      "^": 66,
      "_": 67,
      "`": 68,
      "a": 69,
      "b": 70,
      "c": 71,
      "d": 72,
      "e": 73,
      "f": 74,
      "g": 75,
      "h": 76,
      "i": 77,
      "j": 78,
      "k": 79,
      "l": 80,
      "m": 81,
      "n": 82,
      "o": 83,
      "p": 84,
      "q": 85,
      "r": 86,
      "s": 87,
      "t": 88,
      "u": 89,
      "v": 90,
      "w": 91,
      "x": 92,
      "y": 93,
      "z": 94,
      "{": 95,
      "|": 96,
      "}": 97,
      "~": 98,
      "¡": 99,
      "¢": 100,
      "£": 101,
      "¤": 102,
      "¥": 103,
      "¦": 104,
      "§": 105,
      "©": 106,
      "ª": 107,
      "«": 108,
      "¬": 109,
      "®": 110,
      "°": 111,
      "±": 112,
      "²": 113,
      "³": 114,
      "µ": 115,
      "¶": 116,
      "·": 117,
      "¹": 118,
      "º": 119,
      "»": 120,
      "¼": 121,
      "½": 122,
      "¾": 123,
      "¿": 124,
      "À": 125,
      "Á": 126,
      "Â": 127,
      "Ã": 128,
      "Ä": 129,
      "Å": 130,
      "Æ": 131,
      "Ç": 132,
      "È": 133,
      "É": 134,
      "Ê": 135,
      "Ë": 136,
      "Ì": 137,
      "Í": 138,
      "Î": 139,
      "Ï": 140,
      "Ð": 141,
      "Ñ": 142,
      "Ò": 143,
      "Ó": 144,
      "Ô": 145,
      "Õ": 146,
      "Ö": 147,
      "×": 148,
      "Ø": 149,
      "Ù": 150,
      "Ú": 151,
      "Û": 152,
      "Ü": 153,
      "Ý": 154,
      "Þ": 155,
      "ß": 156,
      "à": 157,
      "á": 158,
      "â": 159,
      "ã": 160,
      "ä": 161,
      "å": 162,
      "æ": 163,
      "ç": 164,
      "è": 165,
      "é": 166,
      "ê": 167,
      "ë": 168,
      "ì": 169,
      "í": 170,
      "î": 171,
      "ï": 172,
      "ð": 173,
      "ñ": 174,
      "ò": 175,
      "ó": 176,
      "ô": 177,
      "õ": 178,
      "ö": 179,
      "÷": 180,
      "ø": 181,
      "ù": 182,
      "ú": 183,
      "û": 184,
      "ü": 185,
      "ý": 186,
      "ÿ": 187,
      "Ā": 188,
      "ā": 189,
      "ă": 190,
      "ą": 191,
      "ć": 192,
      "Č": 193,
      "č": 194,
      "Ď": 195,
      "ď": 196,
      "Ē": 197,
      "ē": 198,
      "ę": 199,
      "Ě": 200,
      "ě": 201,
      "ĝ": 202,
      "Ī": 203,
      "ī": 204,
      "Į": 205,
      "į": 206,
      "ı": 207,
      "Ł": 208,
      "ł": 209,
      "ń": 210,
      "Ō": 211,
      "ō": 212,
      "ő": 213,
      "Œ": 214,
      "œ": 215,
      "ř": 216,
      "Ś": 217,
      "ś": 218,
      "Š": 219,
      "š": 220,
      "Ū": 221,
      "ū": 222,
      "Ž": 223,
      "ƛ": 224,
      "ȩ": 225,
      "ɢ": 226,
      "ɪ": 227,
      "ɴ": 228,
      "ʀ": 229,
      "ʏ": 230,
      "ʙ": 231,
      "ʜ": 232,
      "ʟ": 233,
      "ʰ": 234,
      "ʱ": 235,
      "ʲ": 236,
      "ʳ": 237,
      "ʴ": 238,
      "ʵ": 239,
      "ʶ": 240,
      "ʷ": 241,
      "ʸ": 242,
      "ˠ": 243,
      "ˡ": 244,
      "ˢ": 245,
      "ˣ": 246,
      "ˤ": 247,
      "̂": 248,
      "̲": 249,
      "Ͱ": 250,
      "ͱ": 251,
      "Ϳ": 252,
      "Α": 253,
      "Β": 254,
      "Γ": 255,
      "Δ": 256,
      "Ε": 257,
      "Ζ": 258,
      "Η": 259,
      "Θ": 260,
      "Ι": 261,
      "Κ": 262,
      "Λ": 263,
      "Μ": 264,
      "Ν": 265,
      "Ξ": 266,
      "Ο": 267,
      "Π": 268,
      "Ρ": 269,
      "Σ": 270,
      "Τ": 271,
      "Υ": 272,
      "Φ": 273,
      "Χ": 274,
      "Ψ": 275,
      "Ω": 276,
      "α": 277,
      "β": 278,
      "γ": 279,
      "δ": 280,
      "ε": 281,
      "ζ": 282,
      "η": 283,
      "θ": 284,
      "ι": 285,
      "κ": 286,
      "λ": 287,
      "μ": 288,
      "ν": 289,
      "ξ": 290,
      "ο": 291,
      "π": 292,
      "ρ": 293,
      "ς": 294,
      "σ": 295,
      "τ": 296,
      "υ": 297,
      "φ": 298,
      "χ": 299,
      "ψ": 300,
      "ω": 301,
      "ϐ": 302,
      "ϑ": 303,
      "ϕ": 304,
      "ϖ": 305,
      "ϗ": 306,
      "Ϛ": 307,
      "ϛ": 308,
      "Ϝ": 309,
      "ϝ": 310,
      "Ϟ": 311,
      "ϟ": 312,
      "Ϡ": 313,
      "ϡ": 314,
      "Ϣ": 315,
      "ϣ": 316,
      "Ϥ": 317,
      "ϥ": 318,
      "Ϧ": 319,
      "ϧ": 320,
      "Ϩ": 321,
      "ϩ": 322,
      "Ϫ": 323,
      "ϫ": 324,
      "Ϭ": 325,
      "ϭ": 326,
      "Ϯ": 327,
      "ϯ": 328,
      "ϰ": 329,
      "ϱ": 330,
      "Ϸ": 331,
      "ϸ": 332,
      "Ϻ": 333,
      "ϻ": 334,
      "฿": 335,
      "ᗮ": 336,
      "ᘁ": 337,
      "ᴀ": 338,
      "ᴄ": 339,
      "ᴅ": 340,
      "ᴇ": 341,
      "ᴊ": 342,
      "ᴋ": 343,
      "ᴍ": 344,
      "ᴏ": 345,
      "ᴘ": 346,
      "ᴛ": 347,
      "ᴜ": 348,
      "ᴠ": 349,
      "ᴡ": 350,
      "ᴢ": 351,
      "ᴬ": 352,
      "ᴭ": 353,
      "ᴮ": 354,
      "ᴯ": 355,
      "ᴰ": 356,
      "ᴱ": 357,
      "ᴲ": 358,
      "ᴳ": 359,
      "ᴴ": 360,
      "ᴵ": 361,
      "ᴶ": 362,
      "ᴷ": 363,
      "ᴸ": 364,
      "ᴹ": 365,
      "ᴺ": 366,
      "ᴻ": 367,
      "ᴼ": 368,
      "ᴽ": 369,
      "ᴾ": 370,
      "ᴿ": 371,
      "ᵀ": 372,
      "ᵁ": 373,
      "ᵂ": 374,
      "ᵃ": 375,
      "ᵄ": 376,
      "ᵅ": 377,
      "ᵆ": 378,
      "ᵇ": 379,
      "ᵈ": 380,
      "ᵉ": 381,
      "ᵊ": 382,
      "ᵋ": 383,
      "ᵌ": 384,
      "ᵍ": 385,
      "ᵎ": 386,
      "ᵏ": 387,
      "ᵐ": 388,
      "ᵑ": 389,
      "ᵒ": 390,
      "ᵓ": 391,
      "ᵔ": 392,
      "ᵕ": 393,
      "ᵖ": 394,
      "ᵗ": 395,
      "ᵘ": 396,
      "ᵙ": 397,
      "ᵚ": 398,
      "ᵛ": 399,
      "ᵜ": 400,
      "ᵝ": 401,
      "ᵞ": 402,
      "ᵟ": 403,
      "ᵠ": 404,
      "ᵡ": 405,
      "ᵢ": 406,
      "ᵣ": 407,
      "ᵤ": 408,
      "ᵥ": 409,
      "ᵦ": 410,
      "ᵧ": 411,
      "ᵨ": 412,
      "ᵩ": 413,
      "ᵪ": 414,
      "ᶛ": 415,
      "ᶜ": 416,
      "ᶝ": 417,
      "ᶞ": 418,
      "ᶟ": 419,
      "ᶠ": 420,
      "ᶢ": 421,
      "ᶣ": 422,
      "ᶤ": 423,
      "ᶥ": 424,
      "ᶦ": 425,
      "ᶧ": 426,
      "ᶨ": 427,
      "ᶩ": 428,
      "ᶪ": 429,
      "ᶫ": 430,
      "ᶬ": 431,
      "ᶭ": 432,
      "ᶮ": 433,
      "ᶯ": 434,
      "ᶰ": 435,
      "ᶱ": 436,
      "ᶲ": 437,
      "ᶳ": 438,
      "ᶴ": 439,
      "ᶵ": 440,
      "ᶶ": 441,
      "ᶷ": 442,
      "ᶸ": 443,
      "ᶹ": 444,
      "ᶺ": 445,
      "ᶻ": 446,
      "ᶼ": 447,
      "ᶽ": 448,
      "ᶾ": 449,
      "ᶿ": 450,
      "ầ": 451,
      "ỳ": 452,
      "‐": 453,
      "‑": 454,
      "–": 455,
      "—": 456,
      "‖": 457,
      "‘": 458,
      "’": 459,
      "‚": 460,
      "“": 461,
      "”": 462,
      "„": 463,
      "†": 464,
      "‡": 465,
      "•": 466,
      "‣": 467,
      "…": 468,
      "‰": 469,
      "‱": 470,
      "′": 471,
      "‵": 472,
      "‹": 473,
      "›": 474,
      "※": 475,
      "‼": 476,
      "‽": 477,
      "‾": 478,
      "‿": 479,
      "⁀": 480,
      "⁄": 481,
      "⁅": 482,
      "⁆": 483,
      "⁇": 484,
      "⁉": 485,
      "⁎": 486,
      "⁒": 487,
      "⁫": 488,
      "⁬": 489,
      "⁰": 490,
      "ⁱ": 491,
      "⁴": 492,
      "⁵": 493,
      "⁶": 494,
      "⁷": 495,
      "⁸": 496,
      "⁹": 497,
      "⁺": 498,
      "⁻": 499,
      "⁼": 500,
      "⁽": 501,
      "⁾": 502,
      "ⁿ": 503,
      "₀": 504,
      "₁": 505,
      "₂": 506,
      "₃": 507,
      "₄": 508,
      "₅": 509,
      "₆": 510,
      "₇": 511,
      "₈": 512,
      "₉": 513,
      "₊": 514,
      "₋": 515,
      "₌": 516,
      "₍": 517,
      "₎": 518,
      "ₐ": 519,
      "ₑ": 520,
      "ₒ": 521,
      "ₓ": 522,
      "ₕ": 523,
      "ₖ": 524,
      "ₗ": 525,
      "ₘ": 526,
      "ₙ": 527,
      "ₚ": 528,
      "ₛ": 529,
      "ₜ": 530,
      "₡": 531,
      "₢": 532,
      "₤": 533,
      "₥": 534,
      "₦": 535,
      "₧": 536,
      "₨": 537,
      "₩": 538,
      "₫": 539,
      "€": 540,
      "₭": 541,
      "₮": 542,
      "₯": 543,
      "₱": 544,
      "₲": 545,
      "₳": 546,
      "₴": 547,
      "₵": 548,
      "₷": 549,
      "₸": 550,
      "₼": 551,
      "₽": 552,
      "₾": 553,
      "ℂ": 554,
      "℃": 555,
      "ℊ": 556,
      "ℋ": 557,
      "ℌ": 558,
      "ℍ": 559,
      "ℏ": 560,
      "ℐ": 561,
      "ℑ": 562,
      "ℒ": 563,
      "ℓ": 564,
      "ℕ": 565,
      "№": 566,
      "℗": 567,
      "℘": 568,
      "ℙ": 569,
      "ℚ": 570,
      "ℛ": 571,
      "ℜ": 572,
      "ℝ": 573,
      "℞": 574,
      "℠": 575,
      "℡": 576,
      "™": 577,
      "ℤ": 578,
      "℥": 579,
      "Ω": 580,
      "℧": 581,
      "ℨ": 582,
      "K": 583,
      "Å": 584,
      "ℬ": 585,
      "ℭ": 586,
      "℮": 587,
      "ℯ": 588,
      "ℰ": 589,
      "ℱ": 590,
      "ℳ": 591,
      "ℴ": 592,
      "ℵ": 593,
      "ℶ": 594,
      "ℷ": 595,
      "ℸ": 596,
      "℻": 597,
      "⅀": 598,
      "⅋": 599,
      "⅌": 600,
      "⅓": 601,
      "⅔": 602,
      "⅕": 603,
      "⅖": 604,
      "⅗": 605,
      "⅘": 606,
      "⅙": 607,
      "⅚": 608,
      "⅛": 609,
      "⅜": 610,
      "⅝": 611,
      "⅞": 612,
      "⅟": 613,
      "←": 614,
      "↑": 615,
      "→": 616,
      "↓": 617,
      "↔": 618,
      "↕": 619,
      "↖": 620,
      "↗": 621,
      "↘": 622,
      "↙": 623,
      "↚": 624,
      "↛": 625,
      "↜": 626,
      "↝": 627,
      "↞": 628,
      "↟": 629,
      "↠": 630,
      "↡": 631,
      "↢": 632,
      "↣": 633,
      "↤": 634,
      "↥": 635,
      "↦": 636,
      "↧": 637,
      "↨": 638,
      "↩": 639,
      "↪": 640,
      "↫": 641,
      "↬": 642,
      "↭": 643,
      "↮": 644,
      "↯": 645,
      "↰": 646,
      "↱": 647,
      "↶": 648,
      "↷": 649,
      "↺": 650,
      "↻": 651,
      "↼": 652,
      "↽": 653,
      "↾": 654,
      "↿": 655,
      "⇀": 656,
      "⇁": 657,
      "⇂": 658,
      "⇃": 659,
      "⇄": 660,
      "⇅": 661,
      "⇆": 662,
      "⇇": 663,
      "⇈": 664,
      "⇉": 665,
      "⇊": 666,
      "⇋": 667,
      "⇌": 668,
      "⇍": 669,
      "⇎": 670,
      "⇏": 671,
      "⇐": 672,
      "⇑": 673,
      "⇒": 674,
      "⇓": 675,
      "⇔": 676,
      "⇕": 677,
      "⇖": 678,
      "⇗": 679,
      "⇘": 680,
      "⇙": 681,
      "⇚": 682,
      "⇛": 683,
      "⇝": 684,
      "⇨": 685,
      "⇰": 686,
      "⇵": 687,
      "⇶": 688,
      "∀": 689,
      "∁": 690,
      "∂": 691,
      "∃": 692,
      "∄": 693,
      "∅": 694,
      "∆": 695,
      "∇": 696,
      "∈": 697,
      "∉": 698,
      "∋": 699,
      "∌": 700,
      "∍": 701,
      "∎": 702,
      "∏": 703,
      "∐": 704,
      "∑": 705,
      "−": 706,
      "∓": 707,
      "∔": 708,
      "∖": 709,
      "∗": 710,
      "∘": 711,
      "∙": 712,
      "√": 713,
      "∛": 714,
      "∜": 715,
      "∝": 716,
      "∞": 717,
      "∟": 718,
      "∠": 719,
      "∡": 720,
      "∢": 721,
      "∣": 722,
      "∤": 723,
      "∥": 724,
      "∦": 725,
      "∧": 726,
      "∨": 727,
      "∩": 728,
      "∪": 729,
      "∫": 730,
      "∮": 731,
      "∯": 732,
      "∴": 733,
      "∵": 734,
      "∶": 735,
      "∷": 736,
      "∸": 737,
      "∹": 738,
      "∺": 739,
      "∻": 740,
      "∼": 741,
      "∽": 742,
      "≀": 743,
      "≁": 744,
      "≂": 745,
      "≃": 746,
      "≄": 747,
      "≅": 748,
      "≇": 749,
      "≈": 750,
      "≉": 751,
      "≊": 752,
      "≋": 753,
      "≌": 754,
      "≍": 755,
      "≎": 756,
      "≏": 757,
      "≐": 758,
      "≑": 759,
      "≒": 760,
      "≓": 761,
      "≔": 762,
      "≕": 763,
      "≖": 764,
      "≗": 765,
      "≘": 766,
      "≙": 767,
      "≚": 768,
      "≛": 769,
      "≜": 770,
      "≝": 771,
      "≞": 772,
      "≟": 773,
      "≠": 774,
      "≡": 775,
      "≢": 776,
      "≣": 777,
      "≤": 778,
      "≥": 779,
      "≦": 780,
      "≧": 781,
      "≨": 782,
      "≩": 783,
      "≪": 784,
      "≫": 785,
      "≬": 786,
      "≮": 787,
      "≯": 788,
      "≰": 789,
      "≱": 790,
      "≲": 791,
      "≳": 792,
      "≴": 793,
      "≵": 794,
      "≶": 795,
      "≷": 796,
      "≺": 797,
      "≻": 798,
      "≼": 799,
      "≽": 800,
      "≾": 801,
      "≿": 802,
      "⊀": 803,
      "⊁": 804,
      "⊂": 805,
      "⊃": 806,
      "⊄": 807,
      "⊅": 808,
      "⊆": 809,
      "⊇": 810,
      "⊈": 811,
      "⊉": 812,
      "⊊": 813,
      "⊋": 814,
      "⊍": 815,
      "⊎": 816,
      "⊏": 817,
      "⊐": 818,
      "⊑": 819,
      "⊒": 820,
      "⊓": 821,
      "⊔": 822,
      "⊕": 823,
      "⊖": 824,
      "⊗": 825,
      "⊘": 826,
      "⊙": 827,
      "⊚": 828,
      "⊛": 829,
      "⊜": 830,
      "⊝": 831,
      "⊞": 832,
      "⊟": 833,
      "⊠": 834,
      "⊡": 835,
      "⊢": 836,
      "⊣": 837,
      "⊤": 838,
      "⊥": 839,
      "⊧": 840,
      "⊨": 841,
      "⊩": 842,
      "⊪": 843,
      "⊫": 844,
      "⊬": 845,
      "⊭": 846,
      "⊮": 847,
      "⊯": 848,
      "⊲": 849,
      "⊳": 850,
      "⊴": 851,
      "⊵": 852,
      "⊸": 853,
      "⊹": 854,
      "⊺": 855,
      "⊻": 856,
      "⊼": 857,
      "⋀": 858,
      "⋁": 859,
      "⋂": 860,
      "⋃": 861,
      "⋄": 862,
      "⋅": 863,
      "⋆": 864,
      "⋇": 865,
      "⋈": 866,
      "⋉": 867,
      "⋊": 868,
      "⋋": 869,
      "⋌": 870,
      "⋍": 871,
      "⋎": 872,
      "⋏": 873,
      "⋐": 874,
      "⋑": 875,
      "⋒": 876,
      "⋓": 877,
      "⋔": 878,
      "⋖": 879,
      "⋗": 880,
      "⋘": 881,
      "⋙": 882,
      "⋚": 883,
      "⋛": 884,
      "⋜": 885,
      "⋝": 886,
      "⋞": 887,
      "⋟": 888,
      "⋠": 889,
      "⋡": 890,
      "⋢": 891,
      "⋣": 892,
      "⋦": 893,
      "⋧": 894,
      "⋨": 895,
      "⋩": 896,
      "⋪": 897,
      "⋫": 898,
      "⋬": 899,
      "⋭": 900,
      "⋮": 901,
      "⋯": 902,
      "⋱": 903,
      "⌀": 904,
      "⌈": 905,
      "⌉": 906,
      "⌊": 907,
      "⌋": 908,
      "⌜": 909,
      "⌝": 910,
      "⌞": 911,
      "⌟": 912,
      "⌢": 913,
      "⌣": 914,
      "⌶": 915,
      "⍟": 916,
      "⎛": 917,
      "⎜": 918,
      "⎝": 919,
      "⎞": 920,
      "⎟": 921,
      "⎠": 922,
      "⎯": 923,
      "⏎": 924,
      "⏐": 925,
      "⏳": 926,
      "Ⓢ": 927,
      "─": 928,
      "━": 929,
      "│": 930,
      "┌": 931,
      "┐": 932,
      "└": 933,
      "┘": 934,
      "├": 935,
      "┬": 936,
      "╌": 937,
      "═": 938,
      "╭": 939,
      "╮": 940,
      "╯": 941,
      "╰": 942,
      "╱": 943,
      "■": 944,
      "□": 945,
      "▢": 946,
      "▣": 947,
      "▪": 948,
      "▬": 949,
      "▭": 950,
      "▰": 951,
      "▱": 952,
      "△": 953,
      "▴": 954,
      "▵": 955,
      "▶": 956,
      "▷": 957,
      "▸": 958,
      "▹": 959,
      "▼": 960,
      "▽": 961,
      "▾": 962,
      "▿": 963,
      "◀": 964,
      "◁": 965,
      "◂": 966,
      "◃": 967,
      "◄": 968,
      "◆": 969,
      "◇": 970,
      "◈": 971,
      "○": 972,
      "◌": 973,
      "◎": 974,
      "●": 975,
      "◢": 976,
      "◥": 977,
      "◦": 978,
      "◫": 979,
      "◯": 980,
      "◹": 981,
      "◾": 982,
      "◿": 983,
      "★": 984,
      "☡": 985,
      "☢": 986,
      "☣": 987,
      "☹": 988,
      "☺": 989,
      "☻": 990,
      "♀": 991,
      "♂": 992,
      "♠": 993,
      "♢": 994,
      "♣": 995,
      "♥": 996,
      "♩": 997,
      "♪": 998,
      "♭": 999,
      "♮": 1000,
      "♯": 1001,
      "⚀": 1002,
      "⚠": 1003,
      "⚬": 1004,
      "✂": 1005,
      "✅": 1006,
      "✉": 1007,
      "✓": 1008,
      "✔": 1009,
      "✗": 1010,
      "✝": 1011,
      "✠": 1012,
      "✦": 1013,
      "✧": 1014,
      "✴": 1015,
      "✶": 1016,
      "✹": 1017,
      "❌": 1018,
      "⟂": 1019,
      "⟅": 1020,
      "⟆": 1021,
      "⟋": 1022,
      "⟍": 1023,
      "⟦": 1024,
      "⟧": 1025,
      "⟨": 1026,
      "⟩": 1027,
      "⟪": 1028,
      "⟫": 1029,
      "⟮": 1030,
      "⟯": 1031,
      "⟰": 1032,
      "⟱": 1033,
      "⟵": 1034,
      "⟶": 1035,
      "⟷": 1036,
      "⟹": 1037,
      "⤏": 1038,
      "⤞": 1039,
      "⤳": 1040,
      "⥢": 1041,
      "⥤": 1042,
      "⥥": 1043,
      "⦃": 1044,
      "⦄": 1045,
      "⦋": 1046,
      "⦌": 1047,
      "⧏": 1048,
      "⧸": 1049,
      "⧾": 1050,
      "⧿": 1051,
      "⨀": 1052,
      "⨁": 1053,
      "⨂": 1054,
      "⨃": 1055,
      "⨄": 1056,
      "⨅": 1057,
      "⨆": 1058,
      "⨍": 1059,
      "⨯": 1060,
      "⨿": 1061,
      "⩿": 1062,
      "⬝": 1063,
      "⯑": 1064,
      "ⱼ": 1065,
      "ⱽ": 1066,
      "⸨": 1067,
      "⸩": 1068,
      "《": 1069,
      "》": 1070,
      "〚": 1071,
      "〛": 1072,
      "㉐": 1073,
      "꙳": 1074,
      "ꜰ": 1075,
      "ꜱ": 1076,
      "ꞯ": 1077,
      "ꟴ": 1078,
      "ꟸ": 1079,
      "ꟹ": 1080,
      "ꭜ": 1081,
      "ꭝ": 1082,
      "ꭞ": 1083,
      "ꭟ": 1084,
      "즊": 1085,
      "️": 1086,
      "﹨": 1087,
      "－": 1088,
      "／": 1089,
      "：": 1090,
      "＼": 1091,
      "￢": 1092,
      "𐆎": 1093,
      "𐞥": 1094,
      "𘔗": 1095,
      "𝐀": 1096,
      "𝐁": 1097,
      "𝐂": 1098,
      "𝐃": 1099,
      "𝐄": 1100,
      "𝐅": 1101,
      "𝐆": 1102,
      "𝐇": 1103,
      "𝐈": 1104,
      "𝐉": 1105,
      "𝐊": 1106,
      "𝐋": 1107,
      "𝐌": 1108,
      "𝐍": 1109,
      "𝐎": 1110,
      "𝐏": 1111,
      "𝐐": 1112,
      "𝐑": 1113,
      "𝐒": 1114,
      "𝐓": 1115,
      "𝐔": 1116,
      "𝐕": 1117,
      "𝐖": 1118,
      "𝐗": 1119,
      "𝐘": 1120,
      "𝐙": 1121,
      "𝐚": 1122,
      "𝐛": 1123,
      "𝐜": 1124,
      "𝐝": 1125,
      "𝐞": 1126,
      "𝐟": 1127,
      "𝐠": 1128,
      "𝐡": 1129,
      "𝐢": 1130,
      "𝐣": 1131,
      "𝐤": 1132,
      "𝐥": 1133,
      "𝐦": 1134,
      "𝐧": 1135,
      "𝐨": 1136,
      "𝐩": 1137,
      "𝐪": 1138,
      "𝐫": 1139,
      "𝐬": 1140,
      "𝐭": 1141,
      "𝐮": 1142,
      "𝐯": 1143,
      "𝐰": 1144,
      "𝐱": 1145,
      "𝐲": 1146,
      "𝐳": 1147,
      "𝐴": 1148,
      "𝐵": 1149,
      "𝐶": 1150,
      "𝐷": 1151,
      "𝐸": 1152,
      "𝐹": 1153,
      "𝐺": 1154,
      "𝐻": 1155,
      "𝐼": 1156,
      "𝐽": 1157,
      "𝐾": 1158,
      "𝐿": 1159,
      "𝑀": 1160,
      "𝑁": 1161,
      "𝑂": 1162,
      "𝑃": 1163,
      "𝑄": 1164,
      "𝑅": 1165,
      "𝑆": 1166,
      "𝑇": 1167,
      "𝑈": 1168,
      "𝑉": 1169,
      "𝑊": 1170,
      "𝑋": 1171,
      "𝑌": 1172,
      "𝑍": 1173,
      "𝑎": 1174,
      "𝑏": 1175,
      "𝑐": 1176,
      "𝑑": 1177,
      "𝑒": 1178,
      "𝑓": 1179,
      "𝑔": 1180,
      "𝑖": 1181,
      "𝑗": 1182,
      "𝑘": 1183,
      "𝑙": 1184,
      "𝑚": 1185,
      "𝑛": 1186,
      "𝑜": 1187,
      "𝑝": 1188,
      "𝑞": 1189,
      "𝑟": 1190,
      "𝑠": 1191,
      "𝑡": 1192,
      "𝑢": 1193,
      "𝑣": 1194,
      "𝑤": 1195,
      "𝑥": 1196,
      "𝑦": 1197,
      "𝑧": 1198,
      "𝑨": 1199,
      "𝑩": 1200,
      "𝑪": 1201,
      "𝑫": 1202,
      "𝑬": 1203,
      "𝑭": 1204,
      "𝑮": 1205,
      "𝑯": 1206,
      "𝑰": 1207,
      "𝑱": 1208,
      "𝑲": 1209,
      "𝑳": 1210,
      "𝑴": 1211,
      "𝑵": 1212,
      "𝑶": 1213,
      "𝑷": 1214,
      "𝑸": 1215,
      "𝑹": 1216,
      "𝑺": 1217,
      "𝑻": 1218,
      "𝑼": 1219,
      "𝑽": 1220,
      "𝑾": 1221,
      "𝑿": 1222,
      "𝒀": 1223,
      "𝒁": 1224,
      "𝒂": 1225,
      "𝒃": 1226,
      "𝒄": 1227,
      "𝒅": 1228,
      "𝒆": 1229,
      "𝒇": 1230,
      "𝒈": 1231,
      "𝒉": 1232,
      "𝒊": 1233,
      "𝒋": 1234,
      "𝒌": 1235,
      "𝒍": 1236,
      "𝒎": 1237,
      "𝒏": 1238,
      "𝒐": 1239,
      "𝒑": 1240,
      "𝒒": 1241,
      "𝒓": 1242,
      "𝒔": 1243,
      "𝒕": 1244,
      "𝒖": 1245,
      "𝒗": 1246,
      "𝒘": 1247,
      "𝒙": 1248,
      "𝒚": 1249,
      "𝒛": 1250,
      "𝒜": 1251,
      "𝒞": 1252,
      "𝒟": 1253,
      "𝒢": 1254,
      "𝒥": 1255,
      "𝒦": 1256,
      "𝒩": 1257,
      "𝒪": 1258,
      "𝒫": 1259,
      "𝒬": 1260,
      "𝒮": 1261,
      "𝒯": 1262,
      "𝒰": 1263,
      "𝒱": 1264,
      "𝒲": 1265,
      "𝒳": 1266,
      "𝒴": 1267,
      "𝒵": 1268,
      "𝒶": 1269,
      "𝒷": 1270,
      "𝒸": 1271,
      "𝒹": 1272,
      "𝒻": 1273,
      "𝒽": 1274,
      "𝒾": 1275,
      "𝒿": 1276,
      "𝓀": 1277,
      "𝓁": 1278,
      "𝓂": 1279,
      "𝓃": 1280,
      "𝓅": 1281,
      "𝓆": 1282,
      "𝓇": 1283,
      "𝓈": 1284,
      "𝓉": 1285,
      "𝓊": 1286,
      "𝓋": 1287,
      "𝓌": 1288,
      "𝓍": 1289,
      "𝓎": 1290,
      "𝓏": 1291,
      "𝓐": 1292,
      "𝓑": 1293,
      "𝓒": 1294,
      "𝓓": 1295,
      "𝓔": 1296,
      "𝓕": 1297,
      "𝓖": 1298,
      "𝓗": 1299,
      "𝓘": 1300,
      "𝓙": 1301,
      "𝓚": 1302,
      "𝓛": 1303,
      "𝓜": 1304,
      "𝓝": 1305,
      "𝓞": 1306,
      "𝓟": 1307,
      "𝓠": 1308,
      "𝓡": 1309,
      "𝓢": 1310,
      "𝓣": 1311,
      "𝓤": 1312,
      "𝓥": 1313,
      "𝓦": 1314,
      "𝓧": 1315,
      "𝓨": 1316,
      "𝓩": 1317,
      "𝓪": 1318,
      "𝓫": 1319,
      "𝓬": 1320,
      "𝓭": 1321,
      "𝓮": 1322,
      "𝓯": 1323,
      "𝓰": 1324,
      "𝓱": 1325,
      "𝓲": 1326,
      "𝓳": 1327,
      "𝓴": 1328,
      "𝓵": 1329,
      "𝓶": 1330,
      "𝓷": 1331,
      "𝓸": 1332,
      "𝓹": 1333,
      "𝓺": 1334,
      "𝓻": 1335,
      "𝓼": 1336,
      "𝓽": 1337,
      "𝓾": 1338,
      "𝓿": 1339,
      "𝔀": 1340,
      "𝔁": 1341,
      "𝔂": 1342,
      "𝔃": 1343,
      "𝔄": 1344,
      "𝔅": 1345,
      "𝔇": 1346,
      "𝔈": 1347,
      "𝔉": 1348,
      "𝔊": 1349,
      "𝔍": 1350,
      "𝔎": 1351,
      "𝔏": 1352,
      "𝔐": 1353,
      "𝔑": 1354,
      "𝔒": 1355,
      "𝔓": 1356,
      "𝔔": 1357,
      "𝔖": 1358,
      "𝔗": 1359,
      "𝔘": 1360,
      "𝔙": 1361,
      "𝔚": 1362,
      "𝔛": 1363,
      "𝔜": 1364,
      "𝔞": 1365,
      "𝔟": 1366,
      "𝔠": 1367,
      "𝔡": 1368,
      "𝔢": 1369,
      "𝔣": 1370,
      "𝔤": 1371,
      "𝔥": 1372,
      "𝔦": 1373,
      "𝔧": 1374,
      "𝔨": 1375,
      "𝔩": 1376,
      "𝔪": 1377,
      "𝔫": 1378,
      "𝔬": 1379,
      "𝔭": 1380,
      "𝔮": 1381,
      "𝔯": 1382,
      "𝔰": 1383,
      "𝔱": 1384,
      "𝔲": 1385,
      "𝔳": 1386,
      "𝔴": 1387,
      "𝔵": 1388,
      "𝔶": 1389,
      "𝔷": 1390,
      "𝔸": 1391,
      "𝔹": 1392,
      "𝔻": 1393,
      "𝔼": 1394,
      "𝔽": 1395,
      "𝔾": 1396,
      "𝕀": 1397,
      "𝕁": 1398,
      "𝕂": 1399,
      "𝕃": 1400,
      "𝕄": 1401,
      "𝕆": 1402,
      "𝕊": 1403,
      "𝕋": 1404,
      "𝕌": 1405,
      "𝕍": 1406,
      "𝕎": 1407,
      "𝕏": 1408,
      "𝕐": 1409,
      "𝕒": 1410,
      "𝕓": 1411,
      "𝕔": 1412,
      "𝕕": 1413,
      "𝕖": 1414,
      "𝕗": 1415,
      "𝕘": 1416,
      "𝕙": 1417,
      "𝕚": 1418,
      "𝕛": 1419,
      "𝕜": 1420,
      "𝕝": 1421,
      "𝕞": 1422,
      "𝕟": 1423,
      "𝕠": 1424,
      "𝕡": 1425,
      "𝕢": 1426,
      "𝕣": 1427,
      "𝕤": 1428,
      "𝕥": 1429,
      "𝕦": 1430,
      "𝕧": 1431,
      "𝕨": 1432,
      "𝕩": 1433,
      "𝕪": 1434,
      "𝕫": 1435,
      "𝖣": 1436,
      "𝟘": 1437,
      "𝟙": 1438,
      "𝟚": 1439,
      "𝟛": 1440,
      "𝟜": 1441,
      "𝟝": 1442,
      "𝟞": 1443,
      "𝟟": 1444,
      "𝟠": 1445,
      "𝟡": 1446,
      "𝟬": 1447,
      "𝟭": 1448,
      "𝟮": 1449,
      "𝟯": 1450,
      "𝟰": 1451,
      "𝟱": 1452,
      "𝟲": 1453,
      "𝟳": 1454,
      "𝟴": 1455,
      "𝟵": 1456,
      "🎉": 1457,
      "🏁": 1458,
      "🐙": 1459,
      "💡": 1460,
      "💥": 1461,
      "🔍": 1462,
      "🚧": 1463,
      "🛇": 1464,
      "🛑": 1465,
      "🟡": 1466,
      "𫍄": 1467,
      "񩩰": 1468,
      "򆉧": 1469,
      "򉔥": 1470,
      "򙷒": 1471,
      "in": 1472,
      "on": 1473,
      "le": 1474,
      "er": 1475,
      "or": 1476,
      "th": 1477,
      "al": 1478,
      "mp": 1479,
      "ti": 1480,
      ":=": 1481,
      "is": 1482,
      "en": 1483,
      "re": 1484,
      "an": 1485,
      "un": 1486,
      "se": 1487,
      "at": 1488,
      "ar": 1489,
      "ap": 1490,
      "om": 1491,
      "si": 1492,
      "of": 1493,
      "the": 1494,
      "su": 1495,
      "ct": 1496,
      "em": 1497,
      "ro": 1498,
      "ul": 1499,
      "st": 1500,
      "tion": 1501,
      "co": 1502,
      "by": 1503,
      "it": 1504,
      "if": 1505,
      "ing": 1506,
      "ce": 1507,
      "ve": 1508,
      "de": 1509,
      "ri": 1510,
      "to": 1511,
      "simp": 1512,
      "ly": 1513,
      "ab": 1514,
      "eq": 1515,
      "li": 1516,
      "ex": 1517,
      "as": 1518,
      "t_": 1519,
      "ge": 1520,
      "fun": 1521,
      "ed": 1522,
      "Is": 1523,
      "iv": 1524,
      ").": 1525,
      "con": 1526,
      "mul": 1527,
      "able": 1528,
      "orem": 1529,
      "theorem": 1530,
      "dd": 1531,
      "po": 1532,
      "iff": 1533,
      "ma": 1534,
      "eg": 1535,
      "of_": 1536,
      "pe": 1537,
      "lo": 1538,
      "du": 1539,
      "map": 1540,
      "et": 1541,
      "int": 1542,
      "e_": 1543,
      "--": 1544,
      "Co": 1545,
      "rw": 1546,
      "-/": 1547,
      "ction": 1548,
      "ra": 1549,
      "ub": 1550,
      "In": 1551,
      "us": 1552,
      "eq_": 1553,
      "comp": 1554,
      "ine": 1555,
      "act": 1556,
      "ith": 1557,
      "he": 1558,
      "@[": 1559,
      "tive": 1560,
      "ero": 1561,
      "=>": 1562,
      "orm": 1563,
      "pa": 1564,
      "ype": 1565,
      "ent": 1566,
      "id": 1567,
      "pro": 1568,
      "ha": 1569,
      "op": 1570,
      "app": 1571,
      "add": 1572,
      "gh": 1573,
      "/--": 1574,
      "_of_": 1575,
      "der": 1576,
      "lem": 1577,
      "))": 1578,
      "sub": 1579,
      "Fin": 1580,
      "es": 1581,
      "ran": 1582,
      "cal": 1583,
      "qu": 1584,
      "up": 1585,
      "Set": 1586,
      "mul_": 1587,
      "end": 1588,
      "set": 1589,
      "mem": 1590,
      "fl": 1591,
      "zero": 1592,
      "ea": 1593,
      "_n": 1594,
      "lic": 1595,
      "ono": 1596,
      "pace": 1597,
      "def": 1598,
      "omm": 1599,
      "ch": 1600,
      "Con": 1601,
      "ght": 1602,
      "_eq_": 1603,
      "_iff": 1604,
      "Hom": 1605,
      "Re": 1606,
      "bra": 1607,
      "apply": 1608,
      "rfl": 1609,
      "and": 1610,
      "lemma": 1611,
      "ot": 1612,
      "ance": 1613,
      "exact": 1614,
      "ver": 1615,
      "_le": 1616,
      "gebra": 1617,
      "ist": 1618,
      "easu": 1619,
      "ation": 1620,
      "mm": 1621,
      "ec": 1622,
      "hf": 1623,
      "odu": 1624,
      "ari": 1625,
      "ory": 1626,
      "`.": 1627,
      "Fun": 1628,
      "uo": 1629,
      "Map": 1630,
      "ort": 1631,
      "Sub": 1632,
      "Al": 1633,
      "odule": 1634,
      "one": 1635,
      "The": 1636,
      "res": 1637,
      "imp": 1638,
      "il": 1639,
      "_s": 1640,
      "vari": 1641,
      "ard": 1642,
      "wh": 1643,
      "Un": 1644,
      "let": 1645,
      "for": 1646,
      "ut": 1647,
      "ymm": 1648,
      "el": 1649,
      "ac": 1650,
      "with": 1651,
      "inear": 1652,
      "tin": 1653,
      "Type": 1654,
      "ob": 1655,
      "Ma": 1656,
      "have": 1657,
      "inst": 1658,
      "log": 1659,
      "ft": 1660,
      "Equ": 1661,
      "ass": 1662,
      "Comp": 1663,
      "ext": 1664,
      "uous": 1665,
      "tinuous": 1666,
      "ca": 1667,
      "variable": 1668,
      "Pro": 1669,
      "hx": 1670,
      "right": 1671,
      "Equiv": 1672,
      "ite": 1673,
      "Mul": 1674,
      "hom": 1675,
      "im": 1676,
      "ctor": 1677,
      "ter": 1678,
      "am": 1679,
      "roup": 1680,
      "ublic": 1681,
      "fi": 1682,
      "On": 1683,
      "ru": 1684,
      "public": 1685,
      "Cat": 1686,
      "To": 1687,
      "ective": 1688,
      "symm": 1689,
      "fin": 1690,
      "rans": 1691,
      "Ring": 1692,
      "_add": 1693,
      "jective": 1694,
      "val": 1695,
      "mem_": 1696,
      "oc": 1697,
      "lib": 1698,
      "ty": 1699,
      "ere": 1700,
      "thlib": 1701,
      "ic": 1702,
      "Space": 1703,
      "only": 1704,
      "Add": 1705,
      "inv": 1706,
      "Mathlib": 1707,
      "Mono": 1708,
      "rable": 1709,
      "instance": 1710,
      "mk": 1711,
      "ta": 1712,
      "all": 1713,
      "Measu": 1714,
      "import": 1715,
      "Comm": 1716,
      "ial": 1717,
      "gr": 1718,
      "his": 1719,
      "ir": 1720,
      "Nat": 1721,
      "Or": 1722,
      "ur": 1723,
      "At": 1724,
      "iz": 1725,
      "pow": 1726,
      "fine": 1727,
      "`,": 1728,
      "Algebra": 1729,
      "lim": 1730,
      "egory": 1731,
      "[←": 1732,
      "Of": 1733,
      "map_": 1734,
      "With": 1735,
      "<|": 1736,
      "set_": 1737,
      "sed": 1738,
      "sup": 1739,
      "s_": 1740,
      "um": 1741,
      "hs": 1742,
      "cc": 1743,
      "mage": 1744,
      "Iso": 1745,
      "ack": 1746,
      "orp": 1747,
      "where": 1748,
      "Linear": 1749,
      "St": 1750,
      "le_": 1751,
      "norm": 1752,
      "Po": 1753,
      "this": 1754,
      "((": 1755,
      "ity": 1756,
      "image": 1757,
      "module": 1758,
      "comm": 1759,
      "Real": 1760,
      "Op": 1761,
      "section": 1762,
      "that": 1763,
      ")]": 1764,
      "equ": 1765,
      "mono": 1766,
      "_apply": 1767,
      "),": 1768,
      "sion": 1769,
      "trans": 1770,
      "sum": 1771,
      "prod": 1772,
      "ect": 1773,
      "obj": 1774,
      "pre": 1775,
      "ad": 1776,
      "ol": 1777,
      "Monoid": 1778,
      "polog": 1779,
      "ift": 1780,
      "ef": 1781,
      "Order": 1782,
      "Category": 1783,
      "intro": 1784,
      "non": 1785,
      "Finset": 1786,
      "ot_": 1787,
      "its": 1788,
      "refine": 1789,
      "mpty": 1790,
      "par": 1791,
      "rict": 1792,
      "itive": 1793,
      "neg": 1794,
      "using": 1795,
      "Module": 1796,
      "ses": 1797,
      "back": 1798,
      "assoc": 1799,
      "type": 1800,
      "coe_": 1801,
      "lt_": 1802,
      "Group": 1803,
      "tain": 1804,
      "ate": 1805,
      "Has": 1806,
      "ral": 1807,
      "algebra": 1808,
      "exist": 1809,
      "Lo": 1810,
      "rim": 1811,
      "*}": 1812,
      "hism": 1813,
      "orphism": 1814,
      "congr": 1815,
      "const": 1816,
      "we": 1817,
      "continuous": 1818,
      "range": 1819,
      "rib": 1820,
      "/-": 1821,
      "Continuous": 1822,
      "Int": 1823,
      "_sub": 1824,
      "per": 1825,
      "di": 1826,
      "lex": 1827,
      "clo": 1828,
      "Finite": 1829,
      "inf": 1830,
      "one_": 1831,
      "open": 1832,
      "top": 1833,
      "ilter": 1834,
      "Sem": 1835,
      "jo": 1836,
      "has": 1837,
      "inter": 1838,
      "ical": 1839,
      "card": 1840,
      "ated": 1841,
      "Topolog": 1842,
      "oun": 1843,
      "cases": 1844,
      "deal": 1845,
      "Ex": 1846,
      "ward": 1847,
      "ull": 1848,
      "tic": 1849,
      "ion": 1850,
      "pos": 1851,
      "Norm": 1852,
      "reser": 1853,
      "egral": 1854,
      "od": 1855,
      "rom": 1856,
      "Theory": 1857,
      "Local": 1858,
      "lt": 1859,
      "cl": 1860,
      "dis": 1861,
      "duct": 1862,
      "div": 1863,
      "simpa": 1864,
      "are": 1865,
      "measu": 1866,
      "univ": 1867,
      "Sup": 1868,
      "sing": 1869,
      "obtain": 1870,
      "Eq": 1871,
      "ded": 1872,
      "ker": 1873,
      "_eq": 1874,
      "hd": 1875,
      "nat": 1876,
      "ight": 1877,
      "strict": 1878,
      "ree": 1879,
      "supp": 1880,
      "ens": 1881,
      "_comp": 1882,
      "_in": 1883,
      "Measure": 1884,
      "then": 1885,
      "ho": 1886,
      "Le": 1887,
      "hp": 1888,
      "not": 1889,
      "Zero": 1890,
      "ne": 1891,
      "Within": 1892,
      "af": 1893,
      "sto": 1894,
      "reserve": 1895,
      "group": 1896,
      "Measurable": 1897,
      "endsto": 1898,
      "limit": 1899,
      "Der": 1900,
      "ors": 1901,
      "ci": 1902,
      "be": 1903,
      "hi": 1904,
      "Diff": 1905,
      "Lim": 1906,
      "hy": 1907,
      "len": 1908,
      ".{": 1909,
      "hg": 1910,
      "gen": 1911,
      "_iff_": 1912,
      "wo": 1913,
      "pan": 1914,
      "cast": 1915,
      "nam": 1916,
      "eld": 1917,
      "Unit": 1918,
      "ke": 1919,
      "succ": 1920,
      "leton": 1921,
      "Cl": 1922,
      "sure": 1923,
      "get": 1924,
      "lf": 1925,
      "An": 1926,
      "pi": 1927,
      "asis": 1928,
      "from": 1929,
      "Ideal": 1930,
      "omial": 1931,
      "Clo": 1932,
      "Function": 1933,
      "Li": 1934,
      "⁻¹": 1935,
      "Deriv": 1936,
      "self": 1937,
      "smul_": 1938,
      "##": 1939,
      "left": 1940,
      "linear": 1941,
      "oo": 1942,
      "_additive": 1943,
      "finite": 1944,
      "to_additive": 1945,
      "ring": 1946,
      "iring": 1947,
      "ang": 1948,
      "tr": 1949,
      "Top": 1950,
      "LinearMap": 1951,
      "Pre": 1952,
      "Functor": 1953,
      "pect": 1954,
      "ruct": 1955,
      "20": 1956,
      "te": 1957,
      "ure": 1958,
      "exp": 1959,
      "eval": 1960,
      "hb": 1961,
      "equiv": 1962,
      "hn": 1963,
      "function": 1964,
      "riv": 1965,
      "Se": 1966,
      "ization": 1967,
      "onempty": 1968,
      "_zero": 1969,
      "com": 1970,
      "atri": 1971,
      "names": 1972,
      "enti": 1973,
      "ected": 1974,
      "indu": 1975,
      "_left": 1976,
      "ative": 1977,
      ")).": 1978,
      "ces": 1979,
      "min": 1980,
      "file": 1981,
      "ht": 1982,
      "des": 1983,
      "EN": 1984,
      "wer": 1985,
      "Fi": 1986,
      "order": 1987,
      "namespace": 1988,
      "If": 1989,
      "use": 1990,
      "eff": 1991,
      "ally": 1992,
      "ind": 1993,
      "lift": 1994,
      "_le_": 1995,
      "option": 1996,
      "cy": 1997,
      "ensor": 1998,
      "atrix": 1999,
      "',": 2000,
      "two": 2001,
      "deriv": 2002,
      "_mul_": 2003,
      "Open": 2004,
      "eri": 2005,
      "_mul": 2006,
      "Au": 2007,
      "₂)": 2008,
      "diff": 2009,
      "do": 2010,
      "iform": 2011,
      "')": 2012,
      "exists_": 2013,
      "ullback": 2014,
      "Submodule": 2015,
      "tient": 2016,
      "not_": 2017,
      "lyn": 2018,
      "under": 2019,
      "lynomial": 2020,
      "dep": 2021,
      "functor": 2022,
      "heaf": 2023,
      "rime": 2024,
      "Left": 2025,
      "ding": 2026,
      "Non": 2027,
      "/-!": 2028,
      "lement": 2029,
      "set_option": 2030,
      "hc": 2031,
      "nd": 2032,
      "ense": 2033,
      "ag": 2034,
      "Multi": 2035,
      "desc": 2036,
      "asi": 2037,
      "Par": 2038,
      "ast": 2039,
      "Sh": 2040,
      "AddComm": 2041,
      "Class": 2042,
      "Trans": 2043,
      "List": 2044,
      "Ch": 2045,
      "ber": 2046,
      "Complex": 2047,
      "bi": 2048,
      "ry": 2049,
      "ension": 2050,
      "algebraMap": 2051,
      "ounded": 2052,
      "integral": 2053,
      "pec": 2054,
      "e_zero": 2055,
      "Filter": 2056,
      "max": 2057,
      "ant": 2058,
      "SMul": 2059,
      "row": 2060,
      "pl": 2061,
      "coe": 2062,
      "ary": 2063,
      "'.": 2064,
      "This": 2065,
      "restrict": 2066,
      "alse": 2067,
      "closure": 2068,
      "ase": 2069,
      "ator": 2070,
      "Ar": 2071,
      "Right": 2072,
      "cat": 2073,
      "_right": 2074,
      "Matrix": 2075,
      "tendsto": 2076,
      "space": 2077,
      "tial": 2078,
      "ong": 2079,
      "injective": 2080,
      "ble": 2081,
      "backward": 2082,
      "nel": 2083,
      "che": 2084,
      "unit": 2085,
      "Semiring": 2086,
      "etri": 2087,
      "so": 2088,
      "alen": 2089,
      "cle": 2090,
      "joint": 2091,
      "simp_": 2092,
      "omorphism": 2093,
      "tru": 2094,
      "rivial": 2095,
      "Prop": 2096,
      "intype": 2097,
      "Closed": 2098,
      "''": 2099,
      "ange": 2100,
      "gener": 2101,
      "ancel": 2102,
      "bed": 2103,
      "py": 2104,
      "Homo": 2105,
      "comput": 2106,
      "comap": 2107,
      "add_": 2108,
      "false": 2109,
      "ght_": 2110,
      "Ob": 2111,
      "202": 2112,
      "comp_": 2113,
      "product": 2114,
      "Obj": 2115,
      "cont": 2116,
      "ig": 2117,
      "Field": 2118,
      "Topological": 2119,
      "Inf": 2120,
      "Prod": 2121,
      "monoid": 2122,
      "calar": 2123,
      "mpr": 2124,
      "NReal": 2125,
      "_eq_zero": 2126,
      "ructure": 2127,
      "smul": 2128,
      "bedding": 2129,
      "join": 2130,
      "Topology": 2131,
      "ome": 2132,
      "span": 2133,
      "pr": 2134,
      "`-": 2135,
      "hds": 2136,
      "CategoryTheory": 2137,
      "local": 2138,
      "equal": 2139,
      "Basis": 2140,
      "infer": 2141,
      "point": 2142,
      "eries": 2143,
      "fst": 2144,
      "erenti": 2145,
      "_neg": 2146,
      "verse": 2147,
      "ata": 2148,
      "trivial": 2149,
      "Quo": 2150,
      "ser": 2151,
      "ular": 2152,
      "_smul": 2153,
      "computable": 2154,
      "Normed": 2155,
      "defin": 2156,
      "Ad": 2157,
      "cre": 2158,
      "hm": 2159,
      "_pos": 2160,
      "etric": 2161,
      "Pa": 2162,
      "true": 2163,
      "Quotient": 2164,
      "unt": 2165,
      "forall": 2166,
      "noncomputable": 2167,
      "egrable": 2168,
      "We": 2169,
      "])": 2170,
      "inal": 2171,
      "can": 2172,
      "Polynomial": 2173,
      "Limit": 2174,
      "rank": 2175,
      "simps": 2176,
      "_mem": 2177,
      "⟩,": 2178,
      "measure": 2179,
      "IsS": 2180,
      "..": 2181,
      "sin": 2182,
      "vd": 2183,
      "sur": 2184,
      "Fintype": 2185,
      "dist": 2186,
      "some": 2187,
      "Sum": 2188,
      "posi": 2189,
      "Dis": 2190,
      "At_": 2191,
      "As": 2192,
      "`:": 2193,
      "_lt_": 2194,
      "measurable": 2195,
      "Icc": 2196,
      "Product": 2197,
      "singleton": 2198,
      "Union": 2199,
      "asic": 2200,
      "reserves": 2201,
      "tected": 2202,
      "ise": 2203,
      "preimage": 2204,
      "All": 2205,
      "protected": 2206,
      "Like": 2207,
      "filter": 2208,
      ";>": 2209,
      "<;>": 2210,
      "Def": 2211,
      "Tensor": 2212,
      "₁,": 2213,
      "exists": 2214,
      "hr": 2215,
      "rcases": 2216,
      "rintro": 2217,
      "Alg": 2218,
      "simp_rw": 2219,
      "Dec": 2220,
      "Deg": 2221,
      "induction": 2222,
      "sho": 2223,
      "coeff": 2224,
      "Rel": 2225,
      "Lp": 2226,
      "ain": 2227,
      "']": 2228,
      "ased": 2229,
      "_inv": 2230,
      "dvd": 2231,
      "subset_": 2232,
      "plic": 2233,
      "Compact": 2234,
      "ame": 2235,
      "reserved": 2236,
      "Copy": 2237,
      "whi": 2238,
      "iqu": 2239,
      "Em": 2240,
      "describ": 2241,
      "dex": 2242,
      "Colimit": 2243,
      "ence": 2244,
      "cancel": 2245,
      "₁.": 2246,
      "For": 2247,
      "attr": 2248,
      "ft_": 2249,
      "ute": 2250,
      "logy": 2251,
      "rel": 2252,
      "iven": 2253,
      "idable": 2254,
      "ner": 2255,
      "prop": 2256,
      "LI": 2257,
      "RingHom": 2258,
      "element": 2259,
      "h_": 2260,
      "described": 2261,
      "actic": 2262,
      "ural": 2263,
      "TopologicalSpace": 2264,
      "thors": 2265,
      "perty": 2266,
      "SE": 2267,
      "erentiable": 2268,
      "Qu": 2269,
      "Nonempty": 2270,
      "Rele": 2271,
      "Inst": 2272,
      "mo": 2273,
      "Copyright": 2274,
      "Authors": 2275,
      "rights": 2276,
      "license": 2277,
      "Apa": 2278,
      "Apache": 2279,
      "CEN": 2280,
      "which": 2281,
      "LICEN": 2282,
      "LICENSE": 2283,
      "Released": 2284,
      "right_": 2285,
      "ound": 2286,
      ")`": 2287,
      "trib": 2288,
      "Simp": 2289,
      "amp": 2290,
      "dual": 2291,
      "structure": 2292,
      "LE": 2293,
      "Integral": 2294,
      "Inter": 2295,
      "omain": 2296,
      "cone": 2297,
      "Pi": 2298,
      "_sing": 2299,
      "multi": 2300,
      "_non": 2301,
      "erm": 2302,
      "₂.": 2303,
      "respect": 2304,
      "anti": 2305,
      "closed": 2306,
      "iso": 2307,
      "pres": 2308,
      "Char": 2309,
      "One": 2310,
      "`(": 2311,
      "deg": 2312,
      "_one": 2313,
      "refl": 2314,
      "Instance": 2315,
      "Uniform": 2316,
      "ample": 2317,
      "over": 2318,
      "_nat": 2319,
      "Localization": 2320,
      "star": 2321,
      "arg": 2322,
      "ition": 2323,
      "Cast": 2324,
      "Series": 2325,
      "Limits": 2326,
      "valu": 2327,
      "out": 2328,
      "WithinAt": 2329,
      "ful": 2330,
      "cons": 2331,
      "eta": 2332,
      "norm_": 2333,
      "union": 2334,
      "ique": 2335,
      "orph": 2336,
      "CommRing": 2337,
      "Decidable": 2338,
      "Embedding": 2339,
      "au": 2340,
      "alence": 2341,
      "empty": 2342,
      "Ext": 2343,
      "vex": 2344,
      "Cont": 2345,
      "support": 2346,
      "no": 2347,
      "example": 2348,
      "Data": 2349,
      "surjective": 2350,
      "pullback": 2351,
      "old": 2352,
      "actor": 2353,
      "omorph": 2354,
      "lete": 2355,
      "atTop": 2356,
      "toFun": 2357,
      "redu": 2358,
      "morphism": 2359,
      "aliz": 2360,
      "ck": 2361,
      "ually": 2362,
      "vert": 2363,
      "ev": 2364,
      "Indep": 2365,
      "ay": 2366,
      "form": 2367,
      "(-": 2368,
      "pose": 2369,
      "AddCommGroup": 2370,
      "_b": 2371,
      "ou": 2372,
      "ord": 2373,
      "aly": 2374,
      "hab": 2375,
      "rong": 2376,
      "_self": 2377,
      "hain": 2378,
      "any": 2379,
      "root": 2380,
      "dsimp": 2381,
      "onal": 2382,
      "_m": 2383,
      "Action": 2384,
      "tone": 2385,
      "₁)": 2386,
      "crete": 2387,
      "_nhds": 2388,
      "angle": 2389,
      "bet": 2390,
      "Val": 2391,
      "_hom": 2392,
      "sig": 2393,
      "atti": 2394,
      "Subgroup": 2395,
      "Subtype": 2396,
      "Ker": 2397,
      "show": 2398,
      "ers": 2399,
      "by_": 2400,
      "ween": 2401,
      "sh": 2402,
      "snd": 2403,
      "ual": 2404,
      "_ne_zero": 2405,
      "Prime": 2406,
      "_of_is": 2407,
      "⟩⟩": 2408,
      "Tendsto": 2409,
      "imal": 2410,
      "_pow": 2411,
      "_symm": 2412,
      "topolog": 2413,
      "FDeriv": 2414,
      "sets": 2415,
      "umber": 2416,
      "Strict": 2417,
      "low": 2418,
      "between": 2419,
      "ree_": 2420,
      "category": 2421,
      "Ab": 2422,
      "cur": 2423,
      "hu": 2424,
      "attice": 2425,
      "_f": 2426,
      "iter": 2427,
      "t_iff": 2428,
      "_to": 2429,
      "_id": 2430,
      "assi": 2431,
      "entually": 2432,
      "diag": 2433,
      "Finsupp": 2434,
      "_map": 2435,
      "ents": 2436,
      "ency": 2437,
      "ᵒᵖ": 2438,
      "ENNReal": 2439,
      "``": 2440,
      "choo": 2441,
      "_subset_": 2442,
      "Su": 2443,
      "ates": 2444,
      "inser": 2445,
      "iSup": 2446,
      "char": 2447,
      "Basic": 2448,
      "field": 2449,
      "choose": 2450,
      "ced": 2451,
      "Star": 2452,
      "ped": 2453,
      "Bot": 2454,
      "Mod": 2455,
      "prime": 2456,
      "object": 2457,
      "gth": 2458,
      "_singleton": 2459,
      "single": 2460,
      "inferInstance": 2461,
      "Mon": 2462,
      "MDiff": 2463,
      "real": 2464,
      "inl": 2465,
      "Injective": 2466,
      "inr": 2467,
      "Locally": 2468,
      "assical": 2469,
      "clu": 2470,
      "Div": 2471,
      "ore": 2472,
      "ati": 2473,
      "cent": 2474,
      "limits": 2475,
      "_const": 2476,
      "DefEq": 2477,
      "_mono": 2478,
      "₂,": 2479,
      "Shap": 2480,
      "Const": 2481,
      "Bounded": 2482,
      "grind": 2483,
      "cated": 2484,
      "nected": 2485,
      "ami": 2486,
      "];": 2487,
      "root_": 2488,
      "bin": 2489,
      "isDefEq": 2490,
      "aph": 2491,
      "parency": 2492,
      "index": 2493,
      "Kernel": 2494,
      "Id": 2495,
      "adj": 2496,
      "hz": 2497,
      "commut": 2498,
      "tra": 2499,
      "sem": 2500,
      "₂]": 2501,
      "ali": 2502,
      "Mem": 2503,
      "ther": 2504,
      "definition": 2505,
      "Gr": 2506,
      "cover": 2507,
      "rect": 2508,
      "congr_": 2509,
      "natural": 2510,
      "Transparency": 2511,
      "Arrow": 2512,
      "ih": 2513,
      "Point": 2514,
      "since": 2515,
      "ne_": 2516,
      "alk": 2517,
      "sum_": 2518,
      "le_of_": 2519,
      "unop": 2520,
      "respectTransparency": 2521,
      "Mk": 2522,
      "hk": 2523,
      "sition": 2524,
      "_is": 2525,
      "untable": 2526,
      "⟨⟨": 2527,
      "homo": 2528,
      "sq": 2529,
      "Dual": 2530,
      "such": 2531,
      "ose": 2532,
      "ection": 2533,
      "Lie": 2534,
      "MonoidHom": 2535,
      "[∀": 2536,
      "wise": 2537,
      "sult": 2538,
      "extend": 2539,
      "Lift": 2540,
      "constru": 2541,
      "(·": 2542,
      "_nonneg": 2543,
      "alias": 2544,
      "rev": 2545,
      "Spec": 2546,
      "uniform": 2547,
      "additive": 2548,
      "_root_": 2549,
      "ift_": 2550,
      "Gen": 2551,
      "nonneg": 2552,
      "ations": 2553,
      ")))": 2554,
      "Partial": 2555,
      "Unital": 2556,
      "Pullback": 2557,
      "fle": 2558,
      "basis": 2559,
      "_I": 2560,
      "urn": 2561,
      "cond": 2562,
      "abs": 2563,
      "Di": 2564,
      "reduci": 2565,
      "Integrable": 2566,
      "mall": 2567,
      "left_": 2568,
      "ps": 2569,
      "mod": 2570,
      "kernel": 2571,
      "jection": 2572,
      "Dist": 2573,
      "Not": 2574,
      "*)": 2575,
      "fun_": 2576,
      "mon": 2577,
      "_smul_": 2578,
      "amily": 2579,
      "Ro": 2580,
      "plit": 2581,
      "ite_": 2582,
      "_succ": 2583,
      "length": 2584,
      "prim": 2585,
      "Mv": 2586,
      "→+": 2587,
      "_injective": 2588,
      "by_cases": 2589,
      "osition": 2590,
      "etry": 2591,
      "iUnion": 2592,
      "Ordered": 2593,
      "vi": 2594,
      "hj": 2595,
      "_t": 2596,
      "rwa": 2597,
      "Af": 2598,
      "version": 2599,
      "Free": 2600,
      "to_": 2601,
      "expose": 2602,
      "Pres": 2603,
      "depre": 2604,
      "ell": 2605,
      "fa": 2606,
      "hv": 2607,
      "Property": 2608,
      "ive": 2609,
      "elim": 2610,
      "gu": 2611,
      "Ne": 2612,
      "ram": 2613,
      "(.": 2614,
      "Form": 2615,
      "also": 2616,
      "Multiset": 2617,
      "Analy": 2618,
      "Tactic": 2619,
      "NonUnital": 2620,
      "deprecated": 2621,
      "forget": 2622,
      "isker": 2623,
      "whisker": 2624,
      "Metric": 2625,
      "class": 2626,
      "rpow": 2627,
      "conj": 2628,
      "convert": 2629,
      "dist_": 2630,
      "defeq": 2631,
      "dition": 2632,
      "Closure": 2633,
      "cf": 2634,
      "sco": 2635,
      "fun_prop": 2636,
      ")}": 2637,
      "Com": 2638,
      "ofReal": 2639,
      "go": 2640,
      "und": 2641,
      "Domain": 2642,
      "ility": 2643,
      "Affine": 2644,
      "imension": 2645,
      "ometry": 2646,
      "Tower": 2647,
      "_add_": 2648,
      "cycle": 2649,
      "_def": 2650,
      "when": 2651,
      "eventually": 2652,
      "Over": 2653,
      "AlgHom": 2654,
      "Cone": 2655,
      "inclu": 2656,
      "Submonoid": 2657,
      "Coeff": 2658,
      "Aux": 2659,
      "isomorphism": 2660,
      "else": 2661,
      "subset": 2662,
      "⁻¹'": 2663,
      "ess": 2664,
      "Card": 2665,
      "_norm": 2666,
      "ne_zero": 2667,
      "turn": 2668,
      "preserves": 2669,
      "finrank": 2670,
      "_lt": 2671,
      "Attrib": 2672,
      "cor": 2673,
      "_mem_": 2674,
      "oi": 2675,
      "reducible": 2676,
      "fix": 2677,
      "functions": 2678,
      "term": 2679,
      "DecidableEq": 2680,
      "nonempty": 2681,
      "_assoc": 2682,
      "Sch": 2683,
      "Th": 2684,
      "Valu": 2685,
      "equivalence": 2686,
      "calarTower": 2687,
      "lift_": 2688,
      "_app": 2689,
      "maps": 2690,
      "base": 2691,
      "Sheaf": 2692,
      "chain": 2693,
      "LT": 2694,
      "rongly": 2695,
      "suf": 2696,
      "Back": 2697,
      "Max": 2698,
      "·)": 2699,
      "result": 2700,
      "Backward": 2701,
      "Cof": 2702,
      "Sy": 2703,
      "del": 2704,
      "Ball": 2705,
      "By": 2706,
      "reassoc": 2707,
      "change": 2708,
      "De": 2709,
      "rum": 2710,
      "ution": 2711,
      "pectrum": 2712,
      "useBackward": 2713,
      "defeqAttrib": 2714,
      "me": 2715,
      "suffi": 2716,
      "ball": 2717,
      "dic": 2718,
      "})": 2719,
      "Shape": 2720,
      "define": 2721,
      "\")]": 2722,
      "pus": 2723,
      "inj": 2724,
      "raction": 2725,
      "Inv": 2726,
      "age": 2727,
      "soc": 2728,
      "very": 2729,
      "affine": 2730,
      "Bi": 2731,
      "Complete": 2732,
      "present": 2733,
      "Ico": 2734,
      "Homology": 2735,
      "Extension": 2736,
      "Sur": 2737,
      "MeasurableSet": 2738,
      "tensor": 2739,
      "Ioc": 2740,
      "Assoc": 2741,
      "Semi": 2742,
      "hq": 2743,
      "scoped": 2744,
      "Power": 2745,
      "Object": 2746,
      "constructor": 2747,
      "natDeg": 2748,
      "return": 2749,
      "endent": 2750,
      "IsScalarTower": 2751,
      "sis": 2752,
      "oned": 2753,
      "quo": 2754,
      "ent_": 2755,
      "bot": 2756,
      "compact": 2757,
      "oneda": 2758,
      "vector": 2759,
      "omorphic": 2760,
      "Preserves": 2761,
      "AddCommMonoid": 2762,
      "Scalar": 2763,
      "hU": 2764,
      "card_": 2765,
      "associ": 2766,
      "LinearEquiv": 2767,
      "_of_mem": 2768,
      "//": 2769,
      "hI": 2770,
      "ability": 2771,
      "there": 2772,
      "Succ": 2773,
      "given": 2774,
      "ace": 2775,
      "Given": 2776,
      "isOpen": 2777,
      "rier": 2778,
      "differentiable": 2779,
      "subtype": 2780,
      "pp": 2781,
      "tiv": 2782,
      "Monoidal": 2783,
      "Under": 2784,
      "lean": 2785,
      "₁₂": 2786,
      "2026": 2787,
      "bounded": 2788,
      "h1": 2789,
      "adjoin": 2790,
      "mat": 2791,
      "inverse": 2792,
      "No": 2793,
      "compl": 2794,
      "**": 2795,
      "eme": 2796,
      "IsOpen": 2797,
      "_div": 2798,
      "integrable": 2799,
      "_co": 2800,
      "insert": 2801,
      "tri": 2802,
      "_ne": 2803,
      "Bo": 2804,
      "Morphism": 2805,
      "bound": 2806,
      "MeasurableSpace": 2807,
      "prove": 2808,
      "ts": 2809,
      "den": 2810,
      "suffices": 2811,
      "wap": 2812,
      "gc": 2813,
      "hP": 2814,
      "hout": 2815,
      "inci": 2816,
      "ate_": 2817,
      "See": 2818,
      "_comm": 2819,
      "ithful": 2820,
      "complex": 2821,
      "eq_zero": 2822,
      "Cy": 2823,
      "hS": 2824,
      "ae_": 2825,
      "ove": 2826,
      "MulAction": 2827,
      "→+*": 2828,
      "Sig": 2829,
      "Root": 2830,
      "hl": 2831,
      "mul_assoc": 2832,
      "mul_comm": 2833,
      "variant": 2834,
      "NNReal": 2835,
      "'}": 2836,
      "aus": 2837,
      "izer": 2838,
      "calc": 2839,
      "uld": 2840,
      "TensorProduct": 2841,
      "antisymm": 2842,
      "factor": 2843,
      "Convex": 2844,
      "prod_": 2845,
      "colimit": 2846,
      "vol": 2847,
      "En": 2848,
      "WithZero": 2849,
      "multiplic": 2850,
      "Span": 2851,
      "fderiv": 2852,
      "Subalgebra": 2853,
      "Fact": 2854,
      "Main": 2855,
      "to_dual": 2856,
      "rec": 2857,
      "Set_": 2858,
      "brev": 2859,
      "tendsto_": 2860,
      "ph": 2861,
      "derivative": 2862,
      "Reg": 2863,
      "_ne_": 2864,
      "Adj": 2865,
      "h2": 2866,
      "Rat": 2867,
      "unique": 2868,
      "MvPolynomial": 2869,
      "abbrev": 2870,
      "sy": 2871,
      "radi": 2872,
      "pair": 2873,
      "urce": 2874,
      "Lattice": 2875,
      "separ": 2876,
      "Divis": 2877,
      "_mk": 2878,
      "center": 2879,
      "Separ": 2880,
      "eq_of_": 2881,
      "sSup": 2882,
      "contain": 2883,
      "univer": 2884,
      "Unique": 2885,
      "case": 2886,
      "_eq_of_": 2887,
      "les": 2888,
      "(∀": 2889,
      "rivate": 2890,
      "disjoin": 2891,
      "Pair": 2892,
      "Ord": 2893,
      "ideal": 2894,
      "degree": 2895,
      "Disjoint": 2896,
      "aux": 2897,
      "Algebraic": 2898,
      "bot_": 2899,
      "MeasureTheory": 2900,
      "condition": 2901,
      "polynomial": 2902,
      "Regular": 2903,
      "Cardinal": 2904,
      "|>": 2905,
      "Expr": 2906,
      "bit": 2907,
      "ior": 2908,
      "hw": 2909,
      "_univ": 2910,
      "private": 2911,
      "ae": 2912,
      "Option": 2913,
      "pt": 2914,
      "flect": 2915,
      "Surjective": 2916,
      "way": 2917,
      "Prim": 2918,
      "_subset": 2919,
      "⟩)": 2920,
      "ous": 2921,
      "Ioo": 2922,
      "topy": 2923,
      "ting": 2924,
      "inner": 2925,
      "Anti": 2926,
      "nil": 2927,
      "|>.": 2928,
      "induced": 2929,
      "same": 2930,
      "convex": 2931,
      "bo": 2932,
      "but": 2933,
      "universe": 2934,
      "Scheme": 2935,
      "_instance": 2936,
      "zpow": 2937,
      "CommSemiring": 2938,
      "lia": 2939,
      "sign": 2940,
      "diagonal": 2941,
      "_one_": 2942,
      "dean": 2943,
      "tivity": 2944,
      "number": 2945,
      "###": 2946,
      "norm_cast": 2947,
      "Distrib": 2948,
      "cfc": 2949,
      "ize": 2950,
      "Gener": 2951,
      "ronglyMeasurable": 2952,
      "iInf": 2953,
      "unc": 2954,
      "elements": 2955,
      "every": 2956,
      "quotient": 2957,
      "itial": 2958,
      "Pos": 2959,
      "attrib": 2960,
      "_of_le": 2961,
      "Tri": 2962,
      "guard": 2963,
      "arget": 2964,
      "OD": 2965,
      "incip": 2966,
      "Cover": 2967,
      "Analysis": 2968,
      "finite_": 2969,
      "Jo": 2970,
      "Congr": 2971,
      "eve": 2972,
      "ort_": 2973,
      "_or": 2974,
      "lt_of_": 2975,
      "gcongr": 2976,
      "points": 2977,
      "aeval": 2978,
      "'`": 2979,
      "_image": 2980,
      "Ri": 2981,
      "map_add": 2982,
      "attribute": 2983,
      "pure": 2984,
      "lin": 2985,
      "Perm": 2986,
      "isClosed": 2987,
      "Colimits": 2988,
      "Fa": 2989,
      "proof": 2990,
      "split": 2991,
      "goal": 2992,
      "graph": 2993,
      "Up": 2994,
      "topological": 2995,
      "Nontrivial": 2996,
      "_l": 2997,
      "angent": 2998,
      "hxy": 2999,
      "Pus": 3000,
      "composition": 3001,
      "each": 3002,
      "AE": 3003,
      "Fraction": 3004,
      "curry": 3005,
      "map_mul": 3006,
      "::": 3007,
      "classical": 3008,
      "-/]": 3009,
      "Path": 3010,
      "tho": 3011,
      "posite": 3012,
      "tactic": 3013,
      "_ext": 3014,
      "Supp": 3015,
      "spec": 3016,
      "Compon": 3017,
      "inorm": 3018,
      "Seminorm": 3019,
      "gs": 3020,
      "mas": 3021,
      "led": 3022,
      "used": 3023,
      "verti": 3024,
      "Change": 3025,
      "iff_": 3026,
      "match": 3027,
      "Seq": 3028,
      "_coe": 3029,
      "gt": 3030,
      "Opens": 3031,
      "into": 3032,
      "Differentiable": 3033,
      "FunLike": 3034,
      "moo": 3035,
      "edge": 3036,
      "mooth": 3037,
      "ized": 3038,
      "Empty": 3039,
      "_of": 3040,
      "Range": 3041,
      "property": 3042,
      "other": 3043,
      "irw": 3044,
      "connected": 3045,
      "ep": 3046,
      "repl": 3047,
      "lies": 3048,
      "wr": 3049,
      "domain": 3050,
      "Note": 3051,
      "ork": 3052,
      "ies": 3053,
      "none": 3054,
      "defined": 3055,
      "Cocone": 3056,
      "poly": 3057,
      "_inter": 3058,
      ")`.": 3059,
      "mmable": 3060,
      "Subsingleton": 3061,
      "power": 3062,
      "fold": 3063,
      "Small": 3064,
      "family": 3065,
      "homomorphism": 3066,
      "lower": 3067,
      "PowerSeries": 3068,
      "Discrete": 3069,
      "conv": 3070,
      "Preorder": 3071,
      "iterated": 3072,
      "Sigma": 3073,
      "₂}": 3074,
      "IsClosed": 3075,
      "closedBall": 3076,
      "itt": 3077,
      "00": 3078,
      "AddMonoid": 3079,
      "_le_iff": 3080,
      "comp_apply": 3081,
      "Normal": 3082,
      "linearMap": 3083,
      "Shift": 3084,
      "∞)": 3085,
      "ler": 3086,
      "Pr": 3087,
      "AddGroup": 3088,
      "sequ": 3089,
      "eomorph": 3090,
      "itz": 3091,
      "toReal": 3092,
      "Presheaf": 3093,
      "Dimension": 3094,
      "($": 3095,
      "var": 3096,
      "erase": 3097,
      "₂₃": 3098,
      "_left_": 3099,
      "topology": 3100,
      "},": 3101,
      "_two": 3102,
      "OfShape": 3103,
      "_cancel": 3104,
      "swap": 3105,
      "homology": 3106,
      "shift": 3107,
      "Scalars": 3108,
      "Number": 3109,
      "_prod": 3110,
      "io": 3111,
      "ties": 3112,
      "line": 3113,
      "]`": 3114,
      "_range": 3115,
      "ving": 3116,
      "edi": 3117,
      "_re": 3118,
      "Factor": 3119,
      "Equivalence": 3120,
      "Exp": 3121,
      "gcd": 3122,
      "Lean": 3123,
      "SetLike": 3124,
      "₀)": 3125,
      "Bin": 3126,
      "Simple": 3127,
      "Ev": 3128,
      "upd": 3129,
      "toLinearMap": 3130,
      "Min": 3131,
      "locally": 3132,
      "seu": 3133,
      "indep": 3134,
      ")⟩": 3135,
      "IsIso": 3136,
      "free": 3137,
      "LinearOrder": 3138,
      "ZMod": 3139,
      "Epi": 3140,
      "hij": 3141,
      "incipal": 3142,
      "car": 3143,
      "ract": 3144,
      "ModuleCat": 3145,
      "disjoint_": 3146,
      "notation": 3147,
      "Gal": 3148,
      "ircle": 3149,
      "lip": 3150,
      "hT": 3151,
      "Sing": 3152,
      "ann": 3153,
      "quare": 3154,
      "infer_instance": 3155,
      "nei": 3156,
      "proj": 3157,
      "Units": 3158,
      "₁]": 3159,
      "Base": 3160,
      "RingTheory": 3161,
      "Iic": 3162,
      "App": 3163,
      "acter": 3164,
      "licit": 3165,
      "IsColimit": 3166,
      "atis": 3167,
      "tition": 3168,
      "Grp": 3169,
      "unction": 3170,
      "⊗[": 3171,
      "sigma": 3172,
      "requ": 3173,
      "Classical": 3174,
      "ist_": 3175,
      "morphisms": 3176,
      "letI": 3177,
      "Compl": 3178,
      "arith": 3179,
      "Indu": 3180,
      "hX": 3181,
      "maximal": 3182,
      "gonal": 3183,
      "thogonal": 3184,
      "esop": 3185,
      "value": 3186,
      "ContDiff": 3187,
      "NormedSpace": 3188,
      "ill": 3189,
      "extension": 3190,
      "fir": 3191,
      "action": 3192,
      "→*": 3193,
      "Faithful": 3194,
      "ContinuousLinearMap": 3195,
      "Connected": 3196,
      "disjoint": 3197,
      "upper": 3198,
      "_congr": 3199,
      "→₀": 3200,
      "ating": 3201,
      "support_": 3202,
      "col": 3203,
      "first": 3204,
      "Name": 3205,
      "ext_iff": 3206,
      "embedding": 3207,
      "Simplex": 3208,
      "Restrict": 3209,
      "edSpace": 3210,
      "see": 3211,
      "distrib": 3212,
      "ze": 3213,
      "Countable": 3214,
      "PartialOrder": 3215,
      ")⁻¹": 3216,
      "commutative": 3217,
      "Above": 3218,
      "sian": 3219,
      "Abs": 3220,
      "satis": 3221,
      "Part": 3222,
      "End": 3223,
      "Homotopy": 3224,
      "lintegral": 3225,
      "IsLocalization": 3226,
      "setOf": 3227,
      "congr_arg": 3228,
      "haveI": 3229,
      "map_zero": 3230,
      "constant": 3231,
      "Ioi": 3232,
      "positivity": 3233,
      "Cᵒᵖ": 3234,
      "continuousOn": 3235,
      "Big": 3236,
      "sInf": 3237,
      "From": 3238,
      "equivalen": 3239,
      "str": 3240,
      "Sort": 3241,
      "fact": 3242,
      "_spec": 3243,
      "_d": 3244,
      "spaces": 3245,
      "IsLimit": 3246,
      "Quot": 3247,
      "Chart": 3248,
      "mul_inv": 3249,
      "_eq_top": 3250,
      "lian": 3251,
      "ax": 3252,
      "(←": 3253,
      "aesop": 3254,
      "Adjoint": 3255,
      "Ve": 3256,
      "ading": 3257,
      "aul": 3258,
      "semiring": 3259,
      "finset": 3260,
      "map_comp": 3261,
      "Si": 3262,
      "nhds": 3263,
      "interior": 3264,
      "Walk": 3265,
      "eak": 3266,
      "Two": 3267,
      "sdiff": 3268,
      "interval": 3269,
      "cycles": 3270,
      "Lex": 3271,
      "ends": 3272,
      "bination": 3273,
      "IsLocal": 3274,
      "find": 3275,
      "(↑": 3276,
      "reg": 3277,
      "Pow": 3278,
      "hds_": 3279,
      "than": 3280,
      "Ge": 3281,
      "Direct": 3282,
      "ead": 3283,
      "filter_": 3284,
      "epi": 3285,
      "₀,": 3286,
      "decl": 3287,
      "products": 3288,
      "Bool": 3289,
      "_inj": 3290,
      "replace": 3291,
      "arrow": 3292,
      "ime": 3293,
      "hB": 3294,
      "nn": 3295,
      "_compl": 3296,
      "WithinAt_": 3297,
      "mmer": 3298,
      "cos": 3299,
      "2025": 3300,
      "fol": 3301,
      "alg": 3302,
      "_span": 3303,
      "Num": 3304,
      "Homeomorph": 3305,
      "_map_": 3306,
      "cess": 3307,
      "'⟩": 3308,
      "Vector": 3309,
      "Meta": 3310,
      "bability": 3311,
      "weight": 3312,
      "ault": 3313,
      "Car": 3314,
      "Var": 3315,
      "degree_": 3316,
      "ug": 3317,
      "minal": 3318,
      "does": 3319,
      "disch": 3320,
      "yoneda": 3321,
      "results": 3322,
      "Lin": 3323,
      "complete": 3324,
      "hfg": 3325,
      "ofHom": 3326,
      "Opposite": 3327,
      "generate": 3328,
      "hF": 3329,
      "_sdiff": 3330,
      "tail": 3331,
      "ify": 3332,
      "countable": 3333,
      "ll": 3334,
      "prime_": 3335,
      "lock": 3336,
      "Graph": 3337,
      "ust": 3338,
      "_surjective": 3339,
      "dArrow": 3340,
      "_of_nonneg": 3341,
      "direct": 3342,
      "Sq": 3343,
      "Gro": 3344,
      "identi": 3345,
      "Iff": 3346,
      "ror": 3347,
      "list": 3348,
      "linter": 3349,
      "resp": 3350,
      "],": 3351,
      "naturality": 3352,
      "her": 3353,
      "sity": 3354,
      "partial": 3355,
      "wards": 3356,
      "tw": 3357,
      "ois": 3358,
      "Den": 3359,
      "mul_one": 3360,
      "pri": 3361,
      "ili": 3362,
      "NormedAddCommGroup": 3363,
      "TOD": 3364,
      "TODO": 3365,
      "Kan": 3366,
      "le_antisymm": 3367,
      "hA": 3368,
      "').": 3369,
      "orsion": 3370,
      "logical": 3371,
      "_dvd": 3372,
      "irwise": 3373,
      "map_smul": 3374,
      "Ici": 3375,
      "continuous_": 3376,
      "tions": 3377,
      "normal": 3378,
      "omic": 3379,
      "hμ": 3380,
      "onical": 3381,
      "_num": 3382,
      "leading": 3383,
      "_natCast": 3384,
      "head": 3385,
      "bor": 3386,
      "Cancel": 3387,
      "normaliz": 3388,
      "₃)": 3389,
      "psch": 3390,
      "indic": 3391,
      "presheaf": 3392,
      "ofin": 3393,
      "isUnit": 3394,
      "Image": 3395,
      "pschitz": 3396,
      "```": 3397,
      "abs_": 3398,
      "ff": 3399,
      "sheaf": 3400,
      "source": 3401,
      "ContinuousOn": 3402,
      "prior": 3403,
      "hC": 3404,
      "expres": 3405,
      "semi": 3406,
      "nth": 3407,
      "MorphismProperty": 3408,
      "matrix": 3409,
      "subsingleton": 3410,
      "[(": 3411,
      "_obj": 3412,
      "volum": 3413,
      "FDerivAt": 3414,
      "check": 3415,
      "_cast": 3416,
      "Support": 3417,
      "unctor": 3418,
      "Pushout": 3419,
      "invFun": 3420,
      "inclusion": 3421,
      "projection": 3422,
      "proper": 3423,
      "trace": 3424,
      "Factors": 3425,
      "hφ": 3426,
      "IsUnit": 3427,
      "IsCo": 3428,
      "Inverse": 3429,
      "subgroup": 3430,
      "₁}": 3431,
      "olution": 3432,
      "pred": 3433,
      "MetricSpace": 3434,
      "pot": 3435,
      "lemmas": 3436,
      "Monotone": 3437,
      "Binary": 3438,
      "_union": 3439,
      "oper": 3440,
      "sequence": 3441,
      "Galois": 3442,
      "Term": 3443,
      "eromorphic": 3444,
      "_r": 3445,
      "natDegree": 3446,
      "definitions": 3447,
      "ofNat": 3448,
      "son": 3449,
      "_eq_zero_iff": 3450,
      "∫⁻": 3451,
      "letion": 3452,
      "flects": 3453,
      "Pl": 3454,
      "hK": 3455,
      "count": 3456,
      "trunc": 3457,
      "tot": 3458,
      "basic": 3459,
      "notMem": 3460,
      "tangent": 3461,
      "(@": 3462,
      "priority": 3463,
      "lab": 3464,
      "ifi": 3465,
      "hV": 3466,
      "Structure": 3467,
      "monotone": 3468,
      "eck": 3469,
      "_pi": 3470,
      "fer": 3471,
      "xs": 3472,
      "ourier": 3473,
      "equalizer": 3474,
      "Spectrum": 3475,
      "rop": 3476,
      "add_comm": 3477,
      "seudo": 3478,
      "follow": 3479,
      "sgs": 3480,
      "counit": 3481,
      "_top": 3482,
      "ki": 3483,
      "subst": 3484,
      "aco": 3485,
      "cing": 3486,
      "ish": 3487,
      "bijective": 3488,
      "natCast": 3489,
      "_on": 3490,
      "_preimage": 3491,
      "eous": 3492,
      "ison": 3493,
      "alle": 3494,
      "Ha": 3495,
      "relation": 3496,
      "]⟩": 3497,
      "AlgEquiv": 3498,
      "eth": 3499,
      "respon": 3500,
      "_nonempty": 3501,
      "conver": 3502,
      "biUnion": 3503,
      "ël": 3504,
      "_natural": 3505,
      "prox": 3506,
      "of_is": 3507,
      "about": 3508,
      "indicator": 3509,
      "TopCat": 3510,
      "upwards": 3511,
      "₂⟩": 3512,
      "norm_num": 3513,
      "Fn": 3514,
      "_sq": 3515,
      "...": 3516,
      "chy": 3517,
      "filter_upwards": 3518,
      "correspon": 3519,
      "_X": 3520,
      "Cycle": 3521,
      "path": 3522,
      "_msgs": 3523,
      "guard_msgs": 3524,
      "hJ": 3525,
      "simp_all": 3526,
      "generated": 3527,
      "equivalent": 3528,
      "eq_or": 3529,
      "character": 3530,
      "AddMonoidHom": 3531,
      "divis": 3532,
      "one_mul": 3533,
      "default": 3534,
      "num": 3535,
      "ilinear": 3536,
      "ofinite": 3537,
      "equality": 3538,
      "forall_": 3539,
      "LM": 3540,
      "_snd": 3541,
      "entation": 3542,
      "fixed": 3543,
      "integ": 3544,
      "most": 3545,
      "₂`": 3546,
      "analy": 3547,
      "ited": 3548,
      "ₛₗ": 3549,
      "Exact": 3550,
      "name": 3551,
      "wn": 3552,
      "smul_eq_": 3553,
      "roid": 3554,
      "_of_mem_": 3555,
      "Imp": 3556,
      "series": 3557,
      "Multiplic": 3558,
      "positive": 3559,
      "MultilinearMap": 3560,
      "objects": 3561,
      "discrete": 3562,
      "CommMonoid": 3563,
      "geneous": 3564,
      "Tot": 3565,
      "chime": 3566,
      "chimedean": 3567,
      "nontrivial": 3568,
      "_c": 3569,
      "sieve": 3570,
      "egor": 3571,
      "contDiff": 3572,
      "UniformSpace": 3573,
      "_eq_iff": 3574,
      "cat_": 3575,
      "restrictScalars": 3576,
      "provi": 3577,
      "Index": 3578,
      "Divisors": 3579,
      "sump": 3580,
      "Short": 3581,
      "special": 3582,
      "He": 3583,
      "leadingCoeff": 3584,
      "LpNorm": 3585,
      "vertible": 3586,
      "Bound": 3587,
      "le_rfl": 3588,
      "sqr": 3589,
      "Neg": 3590,
      "eLpNorm": 3591,
      "cli": 3592,
      "elab": 3593,
      "Probability": 3594,
      "instances": 3595,
      "cat_disch": 3596,
      "aw": 3597,
      "bund": 3598,
      "assump": 3599,
      "NatTrans": 3600,
      "BigO": 3601,
      "_symm_apply": 3602,
      "It": 3603,
      "Quasi": 3604,
      "ning": 3605,
      "raded": 3606,
      "hε": 3607,
      "medi": 3608,
      "tak": 3609,
      "data": 3610,
      "Chain": 3611,
      "isColimit": 3612,
      "_of_not_": 3613,
      "inferInstanceAs": 3614,
      "Loc": 3615,
      "IsIntegral": 3616,
      "Ordinal": 3617,
      "DerivAt": 3618,
      "adra": 3619,
      "adratic": 3620,
      "perm": 3621,
      "etheri": 3622,
      "etherian": 3623,
      "Family": 3624,
      "Infinite": 3625,
      "flip": 3626,
      "₂).": 3627,
      "NonAssoc": 3628,
      "_comp_": 3629,
      "will": 3630,
      "should": 3631,
      "these": 3632,
      "separable": 3633,
      "⟨(": 3634,
      "dom": 3635,
      "Additive": 3636,
      "Iio": 3637,
      "ific": 3638,
      "Dimensional": 3639,
      "natDegree_": 3640,
      "represent": 3641,
      "ators": 3642,
      "≪≫": 3643,
      "h0": 3644,
      "Homological": 3645,
      "_right_": 3646,
      "Pred": 3647,
      "Density": 3648,
      "more": 3649,
      "bec": 3650,
      "analytic": 3651,
      "repr": 3652,
      "StrictMono": 3653,
      "canonical": 3654,
      "Dense": 3655,
      "ause": 3656,
      "Let": 3657,
      "Isometry": 3658,
      "along": 3659,
      "_le_of_": 3660,
      "201": 3661,
      "Tr": 3662,
      "_g": 3663,
      "ink": 3664,
      "coe_injective": 3665,
      "target": 3666,
      "tinu": 3667,
      "ContinuousMap": 3668,
      "monomial": 3669,
      "argum": 3670,
      "vel": 3671,
      "Pointwise": 3672,
      "CLM": 3673,
      "lat": 3674,
      "habited": 3675,
      "sitive": 3676,
      "Defs": 3677,
      "Subring": 3678,
      "fiber": 3679,
      "even": 3680,
      "licial": 3681,
      "modules": 3682,
      "ian": 3683,
      "!]": 3684,
      "Cent": 3685,
      "coef": 3686,
      "lar": 3687,
      "`)": 3688,
      "valuation": 3689,
      "det": 3690,
      "ment": 3691,
      "hst": 3692,
      "lying": 3693,
      "endi": 3694,
      "Adjunction": 3695,
      "hom_ext": 3696,
      "↑(": 3697,
      "small": 3698,
      "fac": 3699,
      "info": 3700,
      "mediate": 3701,
      "Independent": 3702,
      "mem_range": 3703,
      "_subtype": 3704,
      "_i": 3705,
      "carrier": 3706,
      "Composition": 3707,
      "StronglyMeasurable": 3708,
      "__": 3709,
      "contra": 3710,
      "mmersion": 3711,
      "due": 3712,
      "fg": 3713,
      "homEquiv": 3714,
      "infinite": 3715,
      "NatIso": 3716,
      "_atTop": 3717,
      "partition": 3718,
      "cod": 3719,
      "IsSt": 3720,
      "htt": 3721,
      "Well": 3722,
      "thendi": 3723,
      "HomologicalComplex": 3724,
      "thendieck": 3725,
      "GE": 3726,
      "cocone": 3727,
      "av": 3728,
      "construct": 3729,
      "Geometry": 3730,
      "give": 3731,
      "well": 3732,
      "roots": 3733,
      "Valuation": 3734,
      "contains": 3735,
      "_naturality": 3736,
      "left_inv": 3737,
      "Bor": 3738,
      "generaliz": 3739,
      "_C": 3740,
      "lie": 3741,
      "Cochain": 3742,
      "principal": 3743,
      "triangle": 3744,
      "motive": 3745,
      "(∑": 3746,
      "}}": 3747,
      "IsCompact": 3748,
      "elf": 3749,
      "Mor": 3750,
      "istic": 3751,
      "ably": 3752,
      "Commute": 3753,
      "right_inv": 3754,
      "cons_": 3755,
      "neigh": 3756,
      "Projection": 3757,
      "WithTop": 3758,
      "Ir": 3759,
      "include": 3760,
      "vsub": 3761,
      "total": 3762,
      "olute": 3763,
      "Upper": 3764,
      "Ter": 3765,
      "Noetherian": 3766,
      "multiplication": 3767,
      "_eq_add": 3768,
      "_eq_one": 3769,
      "ank": 3770,
      "Inner": 3771,
      "ternat": 3772,
      "tomic": 3773,
      "clotomic": 3774,
      "Diag": 3775,
      "NF": 3776,
      "linarith": 3777,
      "Elem": 3778,
      "associated": 3779,
      "ternating": 3780,
      "://": 3781,
      "choose_spec": 3782,
      "lu": 3783,
      "instead": 3784,
      "one_iff": 3785,
      "isIso": 3786,
      "Sym": 3787,
      "fici": 3788,
      "CommClass": 3789,
      "NeZero": 3790,
      "Pseudo": 3791,
      "eas": 3792,
      "tsub": 3793,
      "ived": 3794,
      "Mo": 3795,
      "map_one": 3796,
      "insert_": 3797,
      "dicator": 3798,
      "eqTo": 3799,
      ")),": 3800,
      "general": 3801,
      "reverse": 3802,
      "Yoneda": 3803,
      "orthogonal": 3804,
      "cardinal": 3805,
      "Degree": 3806,
      "bind": 3807,
      "edist": 3808,
      "both": 3809,
      "seq": 3810,
      "ULift": 3811,
      "new": 3812,
      "minpoly": 3813,
      "https": 3814,
      "initial": 3815,
      "FiniteMeasure": 3816,
      "update": 3817,
      "_empty": 3818,
      "code": 3819,
      "strictMono": 3820,
      "size": 3821,
      "categor": 3822,
      "IsTopological": 3823,
      "100": 3824,
      "Haus": 3825,
      "ZeroDivisors": 3826,
      "units": 3827,
      "terms": 3828,
      "dimension": 3829,
      "SL": 3830,
      "reserving": 3831,
      "Cau": 3832,
      "tan": 3833,
      "differ": 3834,
      "Completion": 3835,
      "LinearAlgebra": 3836,
      "_not": 3837,
      "Core": 3838,
      "our": 3839,
      "ences": 3840,
      "Interval": 3841,
      "ale": 3842,
      "minimal": 3843,
      "eni": 3844,
      "test": 3845,
      "isLimit": 3846,
      "_if": 3847,
      "pushout": 3848,
      "DFunLike": 3849,
      "dense": 3850,
      "Inhabited": 3851,
      "_val": 3852,
      "last": 3853,
      "ifunctor": 3854,
      "And": 3855,
      "smul_eq_mul": 3856,
      "because": 3857,
      "need": 3858,
      "ide": 3859,
      "van": 3860,
      "and_": 3861,
      "ᵒᵈ": 3862,
      "Seminormed": 3863,
      "_not_": 3864,
      "aussian": 3865,
      "anif": 3866,
      "append": 3867,
      "ContMDiff": 3868,
      "mula": 3869,
      "FractionRing": 3870,
      "Bijective": 3871,
      "key": 3872,
      "Nil": 3873,
      "irc": 3874,
      "ration": 3875,
      "diagram": 3876,
      "(`": 3877,
      "isomorphic": 3878,
      "[]": 3879,
      "∞}": 3880,
      "Filtered": 3881,
      "less": 3882,
      "odup": 3883,
      "Eventually": 3884,
      "summable": 3885,
      "nta": 3886,
      "ntax": 3887,
      "ulus": 3888,
      "continu": 3889,
      "Tra": 3890,
      "Grothendieck": 3891,
      "anifold": 3892,
      "coeffici": 3893,
      "IH": 3894,
      "toFinset": 3895,
      "`[": 3896,
      "Mat": 3897,
      "Func": 3898,
      "OfLE": 3899,
      "stat": 3900,
      "jOn": 3901,
      "_sum": 3902,
      "types": 3903,
      "they": 3904,
      "Unitor": 3905,
      "ire": 3906,
      "le_of_lt": 3907,
      "funext": 3908,
      "Pairwise": 3909,
      "fderivWithin": 3910,
      "sidue": 3911,
      "isS": 3912,
      "loor": 3913,
      "phere": 3914,
      "rou": 3915,
      "measurableSet_": 3916,
      "normed": 3917,
      "_inser": 3918,
      "Founded": 3919,
      "lor": 3920,
      "iver": 3921,
      "le_trans": 3922,
      "ud": 3923,
      "SMulCommClass": 3924,
      "Monic": 3925,
      "Associ": 3926,
      "‖₊": 3927,
      "Lef": 3928,
      "dec": 3929,
      "Conj": 3930,
      "adic": 3931,
      "ctive": 3932,
      "}`": 3933,
      "Eu": 3934,
      "Res": 3935,
      "ise_": 3936,
      "Value": 3937,
      "Initial": 3938,
      "Size": 3939,
      "_fst": 3940,
      "Be": 3941,
      "Combination": 3942,
      "Maximal": 3943,
      "stronglyMeasurable": 3944,
      "their": 3945,
      "gence": 3946,
      "volume": 3947,
      "RingEquiv": 3948,
      "({": 3949,
      "uniformity": 3950,
      "Abe": 3951,
      "Abelian": 3952,
      "fy": 3953,
      "Weight": 3954,
      "OrderedRing": 3955,
      "ip": 3956,
      "second": 3957,
      "odic": 3958,
      "comp_id": 3959,
      "isCompact": 3960,
      "amma": 3961,
      "ves": 3962,
      "assum": 3963,
      "main": 3964,
      "part": 3965,
      "`{": 3966,
      "eq_iff": 3967,
      "Inducing": 3968,
      "Uniformly": 3969,
      "commutes": 3970,
      "neighbor": 3971,
      "Analytic": 3972,
      "Locus": 3973,
      "values": 3974,
      "asser": 3975,
      "statem": 3976,
      "hold": 3977,
      "₀]": 3978,
      "mem_nhds": 3979,
      "dor": 3980,
      "Left_": 3981,
      "dorff": 3982,
      "ists": 3983,
      "pf": 3984,
      "‖)": 3985,
      "omorphisms": 3986,
      "smooth": 3987,
      "os": 3988,
      "intCast": 3989,
      "_ne_top": 3990,
      "toMatrix": 3991,
      "clic": 3992,
      "₁`": 3993,
      "stalk": 3994,
      "write": 3995,
      "SimpleGraph": 3996,
      "allel": 3997,
      "ctx": 3998,
      "contMDiff": 3999,
      "mation": 4000,
      "Te": 4001,
      "hQ": 4002,
      "ShortComplex": 4003,
      "_1": 4004,
      "ordered": 4005,
      "corresponding": 4006,
      "associator": 4007,
      "KanExtension": 4008,
      "Terminal": 4009,
      "hM": 4010,
      "tsum": 4011,
      "rection": 4012,
      "radius": 4013,
      "_0": 4014,
      "_of_pos": 4015,
      "bdd": 4016,
      "ableUnder": 4017,
      "categories": 4018,
      "sive": 4019,
      "withDensity": 4020,
      "monic": 4021,
      "multip": 4022,
      "Vec": 4023,
      "Lower": 4024,
      "localization": 4025,
      "irreducible": 4026,
      "Std": 4027,
      "trap": 4028,
      "uncurry": 4029,
      "Elab": 4030,
      "mediateField": 4031,
      "_inf": 4032,
      "ras": 4033,
      "rac": 4034,
      "evalu": 4035,
      "Arg": 4036,
      "assumption": 4037,
      "stem": 4038,
      "#(": 4039,
      "note": 4040,
      "direction": 4041,
      "ray": 4042,
      "hG": 4043,
      "symm_apply": 4044,
      "Cur": 4045,
      "iteratedFDeriv": 4046,
      "_sup": 4047,
      "induction_on": 4048,
      "Subsemiring": 4049,
      "expression": 4050,
      "side": 4051,
      "flat": 4052,
      "andard": 4053,
      "goals": 4054,
      "ilin": 4055,
      "stri": 4056,
      "expon": 4057,
      "defines": 4058,
      "izedModule": 4059,
      "toEquiv": 4060,
      "ron": 4061,
      "smul_def": 4062,
      "cm": 4063,
      "rich": 4064,
      "03": 4065,
      "lementation": 4066,
      "structuredArrow": 4067,
      "Components": 4068,
      "work": 4069,
      "termin": 4070,
      "String": 4071,
      "Bdd": 4072,
      "jaco": 4073,
      "det_": 4074,
      "_eq_self": 4075,
      "identity": 4076,
      "implicit": 4077,
      "Presentation": 4078,
      "12": 4079,
      "eq_or_ne": 4080,
      "war": 4081,
      "Concrete": 4082,
      "CommRingCat": 4083,
      "post": 4084,
      "integral_": 4085,
      "GrpCat": 4086,
      "hR": 4087,
      "ently": 4088,
      "extChart": 4089,
      "map_id": 4090,
      "Circle": 4091,
      "add_zero": 4092,
      "meta": 4093,
      "WithBot": 4094,
      "Component": 4095,
      "*]": 4096,
      "ick": 4097,
      "_coe_": 4098,
      "nDeriv": 4099,
      "clidean": 4100,
      "square": 4101,
      "regular": 4102,
      "Away": 4103,
      "Er": 4104,
      "hasDeriv": 4105,
      "MonoidalCategory": 4106,
      "hN": 4107,
      "edist_": 4108,
      "fies": 4109,
      "Summable": 4110,
      ")`,": 4111,
      "Lem": 4112,
      "tim": 4113,
      "unfold": 4114,
      "Adjoin": 4115,
      "₂'": 4116,
      "atible": 4117,
      "compon": 4118,
      "hα": 4119,
      "properties": 4120,
      "FiniteDimensional": 4121,
      "push": 4122,
      "lattice": 4123,
      "quasi": 4124,
      "zero_add": 4125,
      "mem_image": 4126,
      "⇑(": 4127,
      "Tag": 4128,
      "ified": 4129,
      "lp": 4130,
      "ObjectProperty": 4131,
      "Immersion": 4132,
      "ᵐᵒᵖ": 4133,
      "ges": 4134,
      "flection": 4135,
      "split_if": 4136,
      "Total": 4137,
      "split_ifs": 4138,
      "trapose": 4139,
      "hpq": 4140,
      "Generated": 4141,
      "adjoint": 4142,
      "underlying": 4143,
      "shiftFunctor": 4144,
      "Oper": 4145,
      "Weak": 4146,
      "ometric": 4147,
      "ier": 4148,
      "_iff_is": 4149,
      "`).": 4150,
      "FG": 4151,
      "cof": 4152,
      "Fiber": 4153,
      "contrapose": 4154,
      "take": 4155,
      "₁₂]": 4156,
      "angle_": 4157,
      "vec": 4158,
      "ulift": 4159,
      "Quiver": 4160,
      "RC": 4161,
      "Red": 4162,
      "zer": 4163,
      "Rank": 4164,
      "_lt_one": 4165,
      "_iUnion": 4166,
      "ach": 4167,
      "ource": 4168,
      "AddSubgroup": 4169,
      "hne": 4170,
      "approx": 4171,
      "whose": 4172,
      "Bund": 4173,
      "alf": 4174,
      "model": 4175,
      "functors": 4176,
      "_closure": 4177,
      "castSucc": 4178,
      "put": 4179,
      "congr_fun": 4180,
      "Semigroup": 4181,
      "scalar": 4182,
      "tern": 4183,
      "sible": 4184,
      "ss": 4185,
      "GroupWithZero": 4186,
      "_nhds_": 4187,
      "Projective": 4188,
      "IntermediateField": 4189,
      "PUnit": 4190,
      "ification": 4191,
      "eqToHom": 4192,
      "⊤)": 4193,
      "abili": 4194,
      "limsup": 4195,
      "2024": 4196,
      "striction": 4197,
      "btw": 4198,
      "coun": 4199,
      "short": 4200,
      "Hy": 4201,
      "run": 4202,
      "++": 4203,
      "eq_comm": 4204,
      "ext_": 4205,
      "icat": 4206,
      "or_": 4207,
      "Joh": 4208,
      "Nilpot": 4209,
      "meromorphic": 4210,
      "Multiplicative": 4211,
      "spectrum": 4212,
      "geb": 4213,
      "semigroup": 4214,
      "Products": 4215,
      "gebras": 4216,
      "isL": 4217,
      "drop": 4218,
      "EquivOf": 4219,
      "toNNReal": 4220,
      "_le_one": 4221,
      "cr": 4222,
      "monoidal": 4223,
      "Right_": 4224,
      "fty": 4225,
      "singular": 4226,
      "e_of_": 4227,
      "mem_univ": 4228,
      "₀.": 4229,
      "_mem_nhds": 4230,
      "Profinite": 4231,
      "Division": 4232,
      "Riou": 4233,
      "ConcreteCategory": 4234,
      "le_iff": 4235,
      "IsBounded": 4236,
      "Separable": 4237,
      "Joël": 4238,
      "condExp": 4239,
      "_trans": 4240,
      "submodule": 4241,
      "central": 4242,
      "pairing": 4243,
      "RCLike": 4244,
      "Whis": 4245,
      "Whisker": 4246,
      "kind": 4247,
      "CompleteSpace": 4248,
      "₃]": 4249,
      "Subset": 4250,
      "copy": 4251,
      "rings": 4252,
      "radical": 4253,
      "las": 4254,
      "hfor": 4255,
      "Sequ": 4256,
      "invariant": 4257,
      "_cons": 4258,
      "id_comp": 4259,
      "indexed": 4260,
      "Euclidean": 4261,
      "struct": 4262,
      "move": 4263,
      "Quadratic": 4264,
      "NN": 4265,
      "int_": 4266,
      "circle": 4267,
      "))).": 4268,
      "![": 4269,
      "hood": 4270,
      "DistribMulAction": 4271,
      "Ver": 4272,
      "sm": 4273,
      "hforward": 4274,
      "weighted": 4275,
      "Flat": 4276,
      "finset_": 4277,
      "∑'": 4278,
      "fully": 4279,
      "ak": 4280,
      "IsDomain": 4281,
      "finitely": 4282,
      "reduce": 4283,
      "Walking": 4284,
      "mean": 4285,
      "Constant": 4286,
      "Cor": 4287,
      "sch": 4288,
      "mul_zero": 4289,
      "_single": 4290,
      "abilizer": 4291,
      "₁).": 4292,
      "binary": 4293,
      "AEMeasurable": 4294,
      "ne_of_": 4295,
      "Torsion": 4296,
      "arison": 4297,
      "homMk": 4298,
      "rary": 4299,
      "tran": 4300,
      "lope": 4301,
      "try": 4302,
      "_reducible": 4303,
      "step": 4304,
      "dicate": 4305,
      "strass": 4306,
      "ierstrass": 4307,
      "BaseChange": 4308,
      "\",": 4309,
      "EReal": 4310,
      "NormedField": 4311,
      "cfcₙ": 4312,
      "heq": 4313,
      "FDerivWithinAt": 4314,
      "Model": 4315,
      "dam": 4316,
      "CompactSpace": 4317,
      "Graded": 4318,
      "satisfy": 4319,
      "ix": 4320,
      "mul_le_": 4321,
      "Bra": 4322,
      "tone_": 4323,
      "_p": 4324,
      "rob": 4325,
      "Sets": 4326,
      "Special": 4327,
      "continuousAt": 4328,
      "Gamma": 4329,
      "div_eq_": 4330,
      "₁'": 4331,
      "CostructuredArrow": 4332,
      "here": 4333,
      "Struct": 4334,
      "mpot": 4335,
      "expect": 4336,
      "le_sup": 4337,
      "down": 4338,
      "Then": 4339,
      "sTo": 4340,
      "ittle": 4341,
      "Cauchy": 4342,
      "parts": 4343,
      "algebras": 4344,
      "Smooth": 4345,
      "cally": 4346,
      "Lipschitz": 4347,
      "Out": 4348,
      "_subset_iff": 4349,
      "Bilin": 4350,
      "_mod": 4351,
      "_bot": 4352,
      "volution": 4353,
      "Singleton": 4354,
      "GL": 4355,
      "≃+": 4356,
      "olve": 4357,
      "OneClass": 4358,
      "extends": 4359,
      "addition": 4360,
      "mt": 4361,
      "Subobject": 4362,
      "ersal": 4363,
      "IsStrict": 4364,
      "poid": 4365,
      "Cofork": 4366,
      "pow_succ": 4367,
      "Fork": 4368,
      "fail": 4369,
      "orderOf": 4370,
      "aem": 4371,
      "oangle": 4372,
      "multiplicative": 4373,
      "one_smul": 4374,
      "if_pos": 4375,
      "pectral": 4376,
      "rot": 4377,
      "⦄,": 4378,
      "plits": 4379,
      "ne_top": 4380,
      "(⟨": 4381,
      "ness": 4382,
      "Integ": 4383,
      "InnerProduct": 4384,
      "imum": 4385,
      "LimitsOfShape": 4386,
      "Sieve": 4387,
      "following": 4388,
      "odd": 4389,
      "easurable": 4390,
      "aemeasurable": 4391,
      "ending": 4392,
      "Triangle": 4393,
      "_iff_of_": 4394,
      "say": 4395,
      "ContinuousAt": 4396,
      "coe_mk": 4397,
      "gives": 4398,
      "Tru": 4399,
      "allow": 4400,
      "bundled": 4401,
      "_indu": 4402,
      "coprod": 4403,
      "Finset_": 4404,
      "variables": 4405,
      "cokernel": 4406,
      "Invariant": 4407,
      "affineSpan": 4408,
      "arbit": 4409,
      "Degree_": 4410,
      "True": 4411,
      "by_contra": 4412,
      "alc": 4413,
      "ping": 4414,
      "Calc": 4415,
      "ENat": 4416,
      "simple": 4417,
      "MVar": 4418,
      "Condition": 4419,
      "if_neg": 4420,
      "comp_assoc": 4421,
      "ordin": 4422,
      "Constru": 4423,
      "HomClass": 4424,
      "NonAssocSemiring": 4425,
      "compose": 4426,
      "Bundle": 4427,
      "Preserving": 4428,
      "Wh": 4429,
      "iti": 4430,
      "Trunc": 4431,
      "sider": 4432,
      "ental": 4433,
      "(⋃": 4434,
      "Bifunctor": 4435,
      "verage": 4436,
      "nonzero": 4437,
      "ilattice": 4438,
      "Cofan": 4439,
      "mem_setOf": 4440,
      "Theorem": 4441,
      "holds": 4442,
      "On_": 4443,
      "Homogeneous": 4444,
      "sidueField": 4445,
      "fourier": 4446,
      "eq_top": 4447,
      "independent": 4448,
      "icken": 4449,
      "ided": 4450,
      "eness": 4451,
      "transl": 4452,
      "_le_add": 4453,
      "deci": 4454,
      "percover": 4455,
      "explicit": 4456,
      "f_": 4457,
      "not_exists": 4458,
      "context": 4459,
      "SSet": 4460,
      "block": 4461,
      "nhds_": 4462,
      "Hull": 4463,
      "Fix": 4464,
      "Even": 4465,
      "Strong": 4466,
      "damental": 4467,
      "ittleO": 4468,
      "_aux": 4469,
      "hle": 4470,
      "semin": 4471,
      "enorm": 4472,
      "Redu": 4473,
      "seminorm": 4474,
      "Block": 4475,
      "reflects": 4476,
      "ctions": 4477,
      "Central": 4478,
      "Borel": 4479,
      "α_": 4480,
      "weak": 4481,
      "Rep": 4482,
      "((↑": 4483,
      "Implementation": 4484,
      "Calculus": 4485,
      "Proper": 4486,
      "⟨?": 4487,
      "param": 4488,
      "conjug": 4489,
      "Atom": 4490,
      "strong": 4491,
      "mul_div": 4492,
      "fect": 4493,
      "PrimeSpectrum": 4494,
      "decide": 4495,
      "ight_": 4496,
      "stack": 4497,
      "Coe": 4498,
      "MvPowerSeries": 4499,
      "factors": 4500,
      "cov": 4501,
      "get_": 4502,
      "eter": 4503,
      "Exists": 4504,
      "ColimitsOfShape": 4505,
      "Archimedean": 4506,
      "inv_mul_": 4507,
      "add_assoc": 4508,
      "!\"": 4509,
      "IsPrime": 4510,
      "Trivial": 4511,
      "Vari": 4512,
      "inher": 4513,
      "read": 4514,
      "extChartAt": 4515,
      "Go": 4516,
      "(⊤": 4517,
      "ys": 4518,
      "Antitone": 4519,
      "satisfies": 4520,
      "above": 4521,
      "Peri": 4522,
      "bal": 4523,
      "thicken": 4524,
      "rough": 4525,
      "toRingHom": 4526,
      "enius": 4527,
      "Tags": 4528,
      "robenius": 4529,
      "_x": 4530,
      "ega": 4531,
      "like": 4532,
      "powers": 4533,
      "ormal": 4534,
      "(((": 4535,
      "Single": 4536,
      "numbers": 4537,
      "sqrt": 4538,
      "_exp": 4539,
      "öl": 4540,
      "error": 4541,
      "lied": 4542,
      "basicOpen": 4543,
      "WellFounded": 4544,
      "ream": 4545,
      "colimits": 4546,
      "AddSubmonoid": 4547,
      "OrderIso": 4548,
      "OfSize": 4549,
      "directed": 4550,
      "rc": 4551,
      "Represent": 4552,
      "icategory": 4553,
      "InnerProductSpace": 4554,
      "Mari": 4555,
      "Derived": 4556,
      "iInter": 4557,
      "utive": 4558,
      "Rec": 4559,
      "iterate_": 4560,
      "require": 4561,
      "((↑)": 4562,
      "Idx": 4563,
      "19": 4564,
      "L1": 4565,
      "Symm": 4566,
      "uIcc": 4567,
      "iteratedDeriv": 4568,
      "floor": 4569,
      "Invertible": 4570,
      "would": 4571,
      "inv_hom": 4572,
      "inter_subset_": 4573,
      "Law": 4574,
      "^[": 4575,
      "rat": 4576,
      "HasFinite": 4577,
      "whiskerRight": 4578,
      "(∏": 4579,
      "_v": 4580,
      "_z": 4581,
      "Arrows": 4582,
      "When": 4583,
      "Public": 4584,
      "hasSum": 4585,
      "Points": 4586,
      "count_": 4587,
      "10": 4588,
      "pb": 4589,
      "loop": 4590,
      "zation": 4591,
      "zero_mul": 4592,
      "ZeroClass": 4593,
      "groups": 4594,
      "Error": 4595,
      "hh": 4596,
      "UpTo": 4597,
      "InPublic": 4598,
      "uniformContinuous": 4599,
      "aleph": 4600,
      "throw": 4601,
      "round": 4602,
      "privateInPublic": 4603,
      "characteristic": 4604,
      "true_": 4605,
      "DFinsupp": 4606,
      "red": 4607,
      "_eq_zero_of_": 4608,
      "hea": 4609,
      "Triang": 4610,
      "them": 4611,
      "hmn": 4612,
      "Irreducible": 4613,
      "hler": 4614,
      "choi": 4615,
      "one_lt_": 4616,
      "declar": 4617,
      "rem": 4618,
      "trans_le": 4619,
      "hY": 4620,
      "thon": 4621,
      "projective": 4622,
      "smul_mem": 4623,
      "Preadditive": 4624,
      "faithful": 4625,
      "next": 4626,
      "Array": 4627,
      "pointwise": 4628,
      "update_": 4629,
      "generateFrom": 4630,
      "Höl": 4631,
      "isBounded": 4632,
      "pothe": 4633,
      "ape": 4634,
      "abel": 4635,
      "one_of_": 4636,
      "ody": 4637,
      "ris": 4638,
      "erential": 4639,
      "]}": 4640,
      "lipschitz": 4641,
      "biprod": 4642,
      "toid": 4643,
      "HasDerivAt": 4644,
      "Mar": 4645,
      "variance": 4646,
      "rTensor": 4647,
      "asses": 4648,
      "Independ": 4649,
      "level": 4650,
      "Rad": 4651,
      "rull": 4652,
      "Factorization": 4653,
      "DF": 4654,
      "DirectSum": 4655,
      "lax": 4656,
      "))]": 4657,
      "#[": 4658,
      "CommGroup": 4659,
      "thonormal": 4660,
      "ece": 4661,
      "Subspace": 4662,
      "node": 4663,
      "PartialHomeomorph": 4664,
      "apply_": 4665,
      "hom_inv": 4666,
      "UniformlyOn": 4667,
      "mvar": 4668,
      "ites": 4669,
      "MulEquiv": 4670,
      "IsFiniteMeasure": 4671,
      "Cotangent": 4672,
      "ury": 4673,
      "AlgebraicGeometry": 4674,
      "art": 4675,
      "itself": 4676,
      "Reflects": 4677,
      "Univ": 4678,
      "hypothe": 4679,
      "fintype": 4680,
      "trans_lt": 4681,
      "disj": 4682,
      "_ge": 4683,
      "ContinuousMultilinearMap": 4684,
      "Simplicial": 4685,
      "Primrec": 4686,
      "CompleteLattice": 4687,
      "MetaM": 4688,
      "Hol": 4689,
      "below": 4690,
      "stabilizer": 4691,
      "Haar": 4692,
      "std": 4693,
      "finsupp": 4694,
      "sections": 4695,
      "mathlib": 4696,
      "hov": 4697,
      "sub_eq_add": 4698,
      "Kud": 4699,
      "Yury": 4700,
      "restriction": 4701,
      "ashov": 4702,
      "setTo": 4703,
      "peri": 4704,
      "ryashov": 4705,
      "Kudryashov": 4706,
      "now": 4707,
      "Param": 4708,
      "Principal": 4709,
      "argument": 4710,
      "_rpow": 4711,
      "mem_singleton": 4712,
      "unital": 4713,
      "DifferentiableAt": 4714,
      "neighborhood": 4715,
      "_eq_bot": 4716,
      "mod_cast": 4717,
      "aut": 4718,
      "strictly": 4719,
      "cyclotomic": 4720,
      "rnDeriv": 4721,
      "ren": 4722,
      "sub_eq_add_neg": 4723,
      "oot": 4724,
      "Box": 4725,
      "Height": 4726,
      "T2": 4727,
      "].": 4728,
      "isBigO": 4729,
      "toDual": 4730,
      "ov": 4731,
      "Types": 4732,
      "lt_iff": 4733,
      "primitive": 4734,
      "grw": 4735,
      "ok": 4736,
      "padic": 4737,
      "Separated": 4738,
      "Sequence": 4739,
      "Grow": 4740,
      "ures": 4741,
      "alternating": 4742,
      "typeclass": 4743,
      "covering": 4744,
      "ae_eq_": 4745,
      "Pt": 4746,
      "Do": 4747,
      "UB": 4748,
      "mem_map": 4749,
      "cket": 4750,
      "sIso": 4751,
      "inequality": 4752,
      "absolute": 4753,
      "01": 4754,
      "Dim": 4755,
      "₁₃": 4756,
      "chart": 4757,
      "Defin": 4758,
      "Ed": 4759,
      "neiro": 4760,
      "predicate": 4761,
      "integer": 4762,
      "codable": 4763,
      "arbitrary": 4764,
      "toNat": 4765,
      "Split": 4766,
      "three": 4767,
      "Per": 4768,
      "may": 4769,
      "mul_smul": 4770,
      "homOfLE": 4771,
      "liminf": 4772,
      "iliary": 4773,
      "evaluation": 4774,
      "ential": 4775,
      "IntegrableOn": 4776,
      "factorization": 4777,
      "gru": 4778,
      "pq": 4779,
      "tesian": 4780,
      "Info": 4781,
      "Mario": 4782,
      "OfShap": 4783,
      "LinearIndependent": 4784,
      "Notation": 4785,
      "Dil": 4786,
      "Conv": 4787,
      "creates": 4788,
      "ds": 4789,
      "mpotent": 4790,
      "many": 4791,
      "----": 4792,
      "AEStronglyMeasurable": 4793,
      "algebraic": 4794,
      "Semilattice": 4795,
      "Cokernel": 4796,
      "SimplexCategory": 4797,
      "Carneiro": 4798,
      "Gaussian": 4799,
      "_ι": 4800,
      "isomorphisms": 4801,
      "choice": 4802,
      "duce": 4803,
      "Proj": 4804,
      "linder": 4805,
      "_of_lt": 4806,
      "parallel": 4807,
      "map_map": 4808,
      "HomologyData": 4809,
      "Test": 4810,
      "IsPre": 4811,
      "measures": 4812,
      "_insert": 4813,
      "sep": 4814,
      "inv_hom_id": 4815,
      "_iff_exists_": 4816,
      "toAlgHom": 4817,
      "formation": 4818,
      "encard": 4819,
      "Presieve": 4820,
      "Manifold": 4821,
      "bran": 4822,
      "ended": 4823,
      "Result": 4824,
      "Hypercover": 4825,
      "Tangent": 4826,
      "bson": 4827,
      "CStar": 4828,
      "rational": 4829,
      "FPowerSeries": 4830,
      "reindex": 4831,
      "one_div": 4832,
      "MonoidWithZero": 4833,
      "OpenPartialHomeomorph": 4834,
      "MapsTo": 4835,
      "ProbabilityMeasure": 4836,
      "isCo": 4837,
      "mul_add": 4838,
      "Comput": 4839,
      "prodMk": 4840,
      "Zeta": 4841,
      "torsion": 4842,
      "Refl": 4843,
      "requently": 4844,
      "tient_": 4845,
      "ComplexShape": 4846,
      "convergence": 4847,
      "implicit_reducible": 4848,
      "Cre": 4849,
      "IsOrdered": 4850,
      "NeBot": 4851,
      "sa": 4852,
      "ofComponents": 4853,
      "_of_injective": 4854,
      "Multip": 4855,
      "dekind": 4856,
      "mul_mem": 4857,
      "AddEquiv": 4858,
      "different": 4859,
      "ten": 4860,
      "_of_ne_zero": 4861,
      "comap_": 4862,
      "_lt_of_": 4863,
      "aleph0": 4864,
      "toList": 4865,
      "ners": 4866,
      "combination": 4867,
      "MemLp": 4868,
      "dimensional": 4869,
      "_doc": 4870,
      "IndepFun": 4871,
      "generalizing": 4872,
      "oid": 4873,
      "sym": 4874,
      "Iso_hom": 4875,
      "mem_setOf_eq": 4876,
      "Directed": 4877,
      "Ho": 4878,
      "thickening": 4879,
      "mul_left_": 4880,
      "ncard": 4881,
      "isIntegral": 4882,
      "inductive": 4883,
      "nhdsWithin": 4884,
      "mapsTo": 4885,
      "_op": 4886,
      "Weierstrass": 4887,
      "System": 4888,
      "Self": 4889,
      "`;": 4890,
      "cau": 4891,
      "ticular": 4892,
      "==": 4893,
      "orig": 4894,
      "IsEmpty": 4895,
      "06": 4896,
      "Last": 4897,
      "flex": 4898,
      "atBot": 4899,
      "monotone_": 4900,
      "hom_inv_id": 4901,
      "particular": 4902,
      "_of_surjective": 4903,
      "2022": 4904,
      "complement": 4905,
      "fter": 4906,
      "ern": 4907,
      "lie_": 4908,
      "WithOne": 4909,
      "Full": 4910,
      "]`.": 4911,
      "within": 4912,
      "iling": 4913,
      "Poly": 4914,
      "sort": 4915,
      "Indicator": 4916,
      "single_": 4917,
      "StructuredArrow": 4918,
      "lue": 4919,
      "ms": 4920,
      "ulated": 4921,
      "quot": 4922,
      "_nn": 4923,
      "imple": 4924,
      "fig": 4925,
      "HasBasis": 4926,
      "transitive": 4927,
      "IsStableUnder": 4928,
      "lTensor": 4929,
      ")‖": 4930,
      "factorial": 4931,
      "aestronglyMeasurable": 4932,
      "₀`": 4933,
      "continuity": 4934,
      "Matroid": 4935,
      "ext1": 4936,
      "Partition": 4937,
      "Dedekind": 4938,
      "Dom": 4939,
      "uni": 4940,
      "mul_eq_": 4941,
      "gment": 4942,
      "uage": 4943,
      "_iff_forall": 4944,
      "anguage": 4945,
      "Ide": 4946,
      "MOD": 4947,
      "zl": 4948,
      "add_mem": 4949,
      "Monad": 4950,
      "terminal": 4951,
      "ne_eq": 4952,
      "₃,": 4953,
      "Fractional": 4954,
      "off": 4955,
      "implies": 4956,
      "assert_": 4957,
      "abe": 4958,
      "oolean": 4959,
      "atom": 4960,
      "Subgraph": 4961,
      "abelian": 4962,
      "_inr": 4963,
      "coefficients": 4964,
      "False": 4965,
      "hσ": 4966,
      "half": 4967,
      "Multilinear": 4968,
      "inductionOn": 4969,
      "whiskering": 4970,
      "just": 4971,
      "fore": 4972,
      "_inner": 4973,
      "IsUniform": 4974,
      "coverage": 4975,
      "Outer": 4976,
      ".,": 4977,
      "𝟙_": 4978,
      "stx": 4979,
      "one_le_": 4980,
      "curr": 4981,
      "derivWithin": 4982,
      "_lt_iff": 4983,
      "asIdeal": 4984,
      "mem_coe": 4985,
      "isEmpty": 4986,
      "polynomials": 4987,
      "Below": 4988,
      "_card": 4989,
      "powerset": 4990,
      "alized": 4991,
      "annes": 4992,
      "Johannes": 4993,
      "Hölzl": 4994,
      "Eval": 4995,
      "pen": 4996,
      "image2": 4997,
      "Syntax": 4998,
      "Primitive": 4999,
      "enspace": 5000,
      "igenspace": 5001,
      "Nilpotent": 5002,
      "_a": 5003,
      "piece": 5004,
      "haus": 5005,
      "Chris": 5006,
      "hζ": 5007,
      "omega": 5008,
      "Fir": 5009,
      "Light": 5010,
      "tends": 5011,
      "baseChange": 5012,
      "normalized": 5013,
      "assert_not_exists": 5014,
      "ronti": 5015,
      "_e": 5016,
      "archimedean": 5017,
      "04": 5018,
      "_open": 5019,
      "tiplic": 5020,
      "surj": 5021,
      "centralizer": 5022,
      "ple": 5023,
      "yle": 5024,
      "Formula": 5025,
      "fs": 5026,
      "sᶜ": 5027,
      "₃}": 5028,
      "ither": 5029,
      "iding": 5030,
      "without": 5031,
      "Dist_": 5032,
      "cfg": 5033,
      "rontier": 5034,
      "toLp": 5035,
      "sub_eq_zero": 5036,
      "maximalIdeal": 5037,
      "fib": 5038,
      "valued": 5039,
      "circ": 5040,
      "Growth": 5041,
      "_int": 5042,
      "rhs": 5043,
      "Refer": 5044,
      "(⊥": 5045,
      "tale": 5046,
      "H1": 5047,
      "Odd": 5048,
      "iterate": 5049,
      "prover": 5050,
      "_lt_top": 5051,
      "lcm": 5052,
      "reflection": 5053,
      "equals": 5054,
      "inherit": 5055,
      "continuousAt_": 5056,
      "homotopy": 5057,
      "via": 5058,
      "Linter": 5059,
      "hes": 5060,
      "Log": 5061,
      "Iter": 5062,
      "_π": 5063,
      "enn": 5064,
      "add_sub": 5065,
      "theory": 5066,
      "determin": 5067,
      "First": 5068,
      "Aut": 5069,
      "lhs": 5070,
      "intros": 5071,
      "vectors": 5072,
      "means": 5073,
      "primes": 5074,
      "rison": 5075,
      "erc": 5076,
      "pos_": 5077,
      "metic": 5078,
      "_div_two": 5079,
      "05": 5080,
      "Boolean": 5081,
      "igen": 5082,
      "≃*": 5083,
      "Ang": 5084,
      "Morrison": 5085,
      "leanprover": 5086,
      "whiskerLeft": 5087,
      "norm_num1": 5088,
      "rullDim": 5089,
      "through": 5090,
      "mem_of_": 5091,
      "consider": 5092,
      "que": 5093,
      "$(": 5094,
      "Ap": 5095,
      "2021": 5096,
      "Adic": 5097,
      "Compacts": 5098,
      "HomEquiv": 5099,
      "transpose": 5100,
      "sqrt_": 5101,
      "tac": 5102,
      "mul_left": 5103,
      "Morphisms": 5104,
      "αᵒᵈ": 5105,
      "rees": 5106,
      "_iso": 5107,
      "_add_cancel": 5108,
      "ramified": 5109,
      "injOn": 5110,
      "Creates": 5111,
      "Meromorphic": 5112,
      "etriz": 5113,
      "PartialEquiv": 5114,
      "Setoid": 5115,
      "tau": 5116,
      "antitone": 5117,
      "Curve": 5118,
      "Kim": 5119,
      "relations": 5120,
      "lt_top": 5121,
      "hbc": 5122,
      "trivialization": 5123,
      "ough": 5124,
      "Line": 5125,
      "pull": 5126,
      "doc": 5127,
      "metric": 5128,
      "ane": 5129,
      "NNRat": 5130,
      "Element": 5131,
      "ries": 5132,
      "IsL": 5133,
      "tach": 5134,
      "Shr": 5135,
      "invertible": 5136,
      "div_eq_mul_inv": 5137,
      "⟩).": 5138,
      "distance": 5139,
      "Shrink": 5140,
      "iltered": 5141,
      "CharP": 5142,
      "MDifferentiable": 5143,
      "^{": 5144,
      "linearly": 5145,
      "arguments": 5146,
      "X_pow": 5147,
      "ContinuousWithinAt": 5148,
      "nonnegative": 5149,
      "e_iff": 5150,
      "avoid": 5151,
      "null": 5152,
      "Comparison": 5153,
      "bot_iff": 5154,
      "T2Space": 5155,
      "don": 5156,
      "topic": 5157,
      "‖(": 5158,
      "Sign": 5159,
      "isometry": 5160,
      "ihil": 5161,
      "jacobi": 5162,
      "Square": 5163,
      "MonCat": 5164,
      "adjunction": 5165,
      "satisfying": 5166,
      "References": 5167,
      "orry": 5168,
      "HasFDerivAt": 5169,
      "classes": 5170,
      "ilar": 5171,
      "height": 5172,
      "Instances": 5173,
      "home": 5174,
      "subset_closure": 5175,
      "sim": 5176,
      "coeFn": 5177,
      "Cond": 5178,
      "fvar": 5179,
      "sphere": 5180,
      "smul_zero": 5181,
      "ases": 5182,
      "you": 5183,
      "DecidablePred": 5184,
      "supported": 5185,
      "Ske": 5186,
      "cell": 5187,
      "Equivalen": 5188,
      "plicate": 5189,
      "CochainComplex": 5190,
      "thing": 5191,
      "unity": 5192,
      "abv": 5193,
      "mem_s": 5194,
      "Reflect": 5195,
      "_add_one": 5196,
      "parti": 5197,
      "ercion": 5198,
      "_algebraMap": 5199,
      "fields": 5200,
      "face": 5201,
      "nonpos": 5202,
      "gue": 5203,
      "AffineSubspace": 5204,
      "denom": 5205,
      "permut": 5206,
      "submonoid": 5207,
      "_inl": 5208,
      "LieSubmodule": 5209,
      "Same": 5210,
      "Col": 5211,
      "smul_apply": 5212,
      "IsometryEquiv": 5213,
      "hW": 5214,
      "⟨⟩": 5215,
      "IsPullback": 5216,
      "statement": 5217,
      "Lemmas": 5218,
      "There": 5219,
      "dim": 5220,
      "Ind": 5221,
      "}.": 5222,
      "OrderBot": 5223,
      "vertex": 5224,
      "DifferentiableWithinAt": 5225,
      "Ya": 5226,
      "_unit": 5227,
      "attach": 5228,
      "zero_lt_one": 5229,
      "taking": 5230,
      "spectral": 5231,
      "HasStrict": 5232,
      "LSeries": 5233,
      "uncated": 5234,
      "hL": 5235,
      "ResidueField": 5236,
      "core": 5237,
      "eq_empty": 5238,
      "coe_mul": 5239,
      "Place": 5240,
      "_restrict": 5241,
      "RingCat": 5242,
      "⁻¹)": 5243,
      "ultiplic": 5244,
      "IsLeft": 5245,
      "congru": 5246,
      "mem_span": 5247,
      "acc": 5248,
      "CompHaus": 5249,
      "SimpleFunc": 5250,
      "Any": 5251,
      "_Ioo": 5252,
      "decidable": 5253,
      "mdifferentiable": 5254,
      "orbit": 5255,
      "IsAffine": 5256,
      "AddHom": 5257,
      "Relation": 5258,
      "_eq_empty": 5259,
      "_Icc": 5260,
      "simplicial": 5261,
      "useful": 5262,
      "Use": 5263,
      "super": 5264,
      "Part_": 5265,
      "≃+*": 5266,
      "`‖": 5267,
      "wise_": 5268,
      "LocallyFinite": 5269,
      "Yaël": 5270,
      "wi": 5271,
      "Dillies": 5272,
      "(∫": 5273,
      "Nodup": 5274,
      "hxs": 5275,
      "heaves": 5276,
      "cs": 5277,
      "_iff_right": 5278,
      "divisors": 5279,
      "Hausdorff": 5280,
      "src": 5281,
      "_of_dvd": 5282,
      "imorphism": 5283,
      "_notMem": 5284,
      "ihilator": 5285,
      "Seg": 5286,
      "ContinuousFunction": 5287,
      "getElem": 5288,
      "being": 5289,
      "_Ioi": 5290,
      "Angle": 5291,
      "trim": 5292,
      "least": 5293,
      "of_forall": 5294,
      "EqOn": 5295,
      "antidiagonal": 5296,
      "_induction": 5297,
      "ble_": 5298,
      "Comma": 5299,
      "Des": 5300,
      "2020": 5301,
      "cardinality": 5302,
      "IsMul": 5303,
      "AtPrime": 5304,
      "ingu": 5305,
      "_desc": 5306,
      "bilinear": 5307,
      "Roots": 5308,
      "contained": 5309,
      "stacks": 5310,
      "11": 5311,
      "tmul": 5312,
      "setIntegral": 5313,
      "formal": 5314,
      "hasDerivAt_": 5315,
      "gf": 5316,
      "_lhs": 5317,
      "\"]": 5318,
      "'`.": 5319,
      "uses": 5320,
      "ste": 5321,
      "le_max": 5322,
      "_indicator": 5323,
      "induces": 5324,
      "exists_is": 5325,
      "FractionalIdeal": 5326,
      "ceil": 5327,
      "clear": 5328,
      "meas": 5329,
      "all_": 5330,
      "box": 5331,
      "times": 5332,
      "OuterMeasure": 5333,
      "orn": 5334,
      "_of_has": 5335,
      "_tensor": 5336,
      "ished": 5337,
      "sti": 5338,
      "Functions": 5339,
      "Artin": 5340,
      "iom": 5341,
      "_swap": 5342,
      "inherit_doc": 5343,
      "Rk": 5344,
      "IsLocally": 5345,
      "IsAlgebraic": 5346,
      "natAbs": 5347,
      "convexHull": 5348,
      "mid": 5349,
      "liable": 5350,
      "cave": 5351,
      "Cartesian": 5352,
      "representation": 5353,
      "_eval": 5354,
      "fast": 5355,
      "sli": 5356,
      "₁⟩": 5357,
      "_source": 5358,
      "diam": 5359,
      "linearCombination": 5360,
      "(‖": 5361,
      "Positive": 5362,
      "entially": 5363,
      "construction": 5364,
      "Tree": 5365,
      "eventuallyEq": 5366,
      "provide": 5367,
      "hδ": 5368,
      "toSubmodule": 5369,
      "ConstSMul": 5370,
      "algHom": 5371,
      "uit": 5372,
      "xp": 5373,
      "bl": 5374,
      "iteness": 5375,
      "dist_eq_": 5376,
      "BorelSpace": 5377,
      "_refl": 5378,
      "ij": 5379,
      "mut": 5380,
      "til": 5381,
      "lt_succ": 5382,
      "smul_add": 5383,
      "_basis": 5384,
      "tou": 5385,
      "make": 5386,
      "lineMap": 5387,
      "SeminormedAddCommGroup": 5388,
      "uil": 5389,
      "IsZero": 5390,
      "_sub_": 5391,
      "Target": 5392,
      "OfUn": 5393,
      "Stalk": 5394,
      "MDiffAt": 5395,
      "Decomposition": 5396,
      "add_le_add": 5397,
      "obtained": 5398,
      "Edge": 5399,
      "frequently": 5400,
      "h3": 5401,
      "emultiplic": 5402,
      "cept": 5403,
      "olutive": 5404,
      "Grou": 5405,
      "emultiplicity": 5406,
      "ymp": 5407,
      "cauchy": 5408,
      "polar": 5409,
      "ithub": 5410,
      "EMetricSpace": 5411,
      "IsRegular": 5412,
      "norm_nonneg": 5413,
      "compatible": 5414,
      "_nil": 5415,
      "github": 5416,
      "Modular": 5417,
      "comp_def": 5418,
      "Resolution": 5419,
      "_mon": 5420,
      "IO": 5421,
      "mul_right_": 5422,
      "map_sub": 5423,
      "disjoint_iff": 5424,
      "look": 5425,
      "Formal": 5426,
      "riched": 5427,
      "bes": 5428,
      "HomotopyCategory": 5429,
      "Groupoid": 5430,
      "apply_symm_apply": 5431,
      "primeFactors": 5432,
      "(∃": 5433,
      "slope": 5434,
      "tag": 5435,
      "original": 5436,
      "Artinian": 5437,
      "arc": 5438,
      "ros": 5439,
      "IsLocalRing": 5440,
      "TorsionFree": 5441,
      "_and": 5442,
      "formula": 5443,
      "_ball": 5444,
      "Coprime": 5445,
      "pansion": 5446,
      "alizer": 5447,
      "nnnorm": 5448,
      "ant_": 5449,
      "standard": 5450,
      "Count": 5451,
      "AddCircle": 5452,
      "Corners": 5453,
      "fraction": 5454,
      "_eq_mk": 5455,
      "biproduct": 5456,
      "-,": 5457,
      "₃.": 5458,
      "not_is": 5459,
      "coroot": 5460,
      "colle": 5461,
      "FiniteType": 5462,
      "_Iic": 5463,
      "_of_le_": 5464,
      "zero_mem": 5465,
      "_le_left": 5466,
      "_meas": 5467,
      "_nhdsWithin": 5468,
      "throwError": 5469,
      "}\"": 5470,
      "HasPullback": 5471,
      "tauto": 5472,
      "MeasurePreserving": 5473,
      "Associates": 5474,
      "_h": 5475,
      "le_add": 5476,
      "ent_iff": 5477,
      "remove": 5478,
      "_sSup": 5479,
      "WithCorners": 5480,
      "MulOpposite": 5481,
      "coe_comp": 5482,
      "Context": 5483,
      "Ret": 5484,
      "dot": 5485,
      "_of_tendsto": 5486,
      "Fourier": 5487,
      "mer": 5488,
      "pairwise": 5489,
      "IsStrictOrderedRing": 5490,
      "brant": 5491,
      "GT": 5492,
      "OfUnity": 5493,
      "IsRight": 5494,
      "symmetric": 5495,
      "homogeneous": 5496,
      "sends": 5497,
      "_of_ne": 5498,
      "CharZero": 5499,
      "nodup": 5500,
      "mem_iUnion": 5501,
      "Alternating": 5502,
      "ics": 5503,
      "Commut": 5504,
      "tfa": 5505,
      "Decl": 5506,
      "cancel_mono": 5507,
      "irwise_": 5508,
      "sp": 5509,
      "vary": 5510,
      "shape": 5511,
      "tgt": 5512,
      "Subsemigroup": 5513,
      "mem_closure": 5514,
      "MonoidAlgebra": 5515,
      "inguished": 5516,
      "coequalizer": 5517,
      "prodMap": 5518,
      "uniq": 5519,
      "Fan": 5520,
      "bd": 5521,
      "opposite": 5522,
      "add_apply": 5523,
      "cyclic": 5524,
      "Cyclotomic": 5525,
      "edges": 5526,
      "etrizable": 5527,
      "mak": 5528,
      "LocalizedModule": 5529,
      "full": 5530,
      "suc": 5531,
      "cale": 5532,
      "add_one": 5533,
      "hausdorff": 5534,
      "Bot_": 5535,
      "bs": 5536,
      "dirac": 5537,
      "nology": 5538,
      "Circ": 5539,
      "hlt": 5540,
      "lyOrdered": 5541,
      "pairwise_": 5542,
      "Comon": 5543,
      "CountableTopology": 5544,
      "FiniteKernel": 5545,
      "one_ne_zero": 5546,
      "congrArg": 5547,
      "_rhs": 5548,
      "specialize": 5549,
      "Idempotent": 5550,
      "subalgebra": 5551,
      "OrderHom": 5552,
      "comul": 5553,
      "sinh": 5554,
      "Degen": 5555,
      "foo": 5556,
      "args": 5557,
      "iteratedFDerivWithin": 5558,
      "_epi": 5559,
      "mul_apply": 5560,
      "adm": 5561,
      "Emb": 5562,
      "Formally": 5563,
      "Cycles": 5564,
      "orthogonalProjection": 5565,
      "BddAbove": 5566,
      "cylinder": 5567,
      "exists_eq_": 5568,
      "Jaco": 5569,
      "style": 5570,
      "Mark": 5571,
      "Len": 5572,
      "continuousWithinAt": 5573,
      "AddCommGrpCat": 5574,
      "east": 5575,
      "hasBasis": 5576,
      "Pairing": 5577,
      "Theta": 5578,
      "algEquiv": 5579,
      "aro": 5580,
      "Construct": 5581,
      "Sym2": 5582,
      "Ba": 5583,
      "convolution": 5584,
      "mapComp": 5585,
      "apt": 5586,
      "ciSup": 5587,
      "DifferentiableOn": 5588,
      "map_pow": 5589,
      "Iso_inv": 5590,
      "commute": 5591,
      "vertices": 5592,
      "assume": 5593,
      "statements": 5594,
      "ubi": 5595,
      "lt_add": 5596,
      "either": 5597,
      "map_injective": 5598,
      "⟧)": 5599,
      "aroubi": 5600,
      "mix": 5601,
      "coefficient": 5602,
      "PI": 5603,
      "graded": 5604,
      "emb": 5605,
      "Args": 5606,
      "FDerivAt_": 5607,
      "...,": 5608,
      "inv_mul_cancel": 5609,
      "gre": 5610,
      "was": 5611,
      "⟩;": 5612,
      "emann": 5613,
      "tprod": 5614,
      "yting": 5615,
      "almost": 5616,
      "ropy": 5617,
      "Modules": 5618,
      "_target": 5619,
      "FaithfulSMul": 5620,
      "mapping": 5621,
      "Holder": 5622,
      "zeroLocus": 5623,
      "hyp": 5624,
      "mul_inv_cancel": 5625,
      "resolve": 5626,
      "Bicategory": 5627,
      "ster": 5628,
      "mk_": 5629,
      "vious": 5630,
      "whiskerLeft_": 5631,
      "(↑)": 5632,
      "ities": 5633,
      "ric": 5634,
      "toLinearEquiv": 5635,
      "zero_le": 5636,
      "Orthonormal": 5637,
      "Character": 5638,
      "⊥)": 5639,
      "volume_": 5640,
      "component": 5641,
      "`),": 5642,
      "hτ": 5643,
      "Coproduct": 5644,
      "hasStrict": 5645,
      "linearIndepend": 5646,
      "essage": 5647,
      "of_le": 5648,
      "Preimage": 5649,
      "ways": 5650,
      "elfAdjoint": 5651,
      "_as": 5652,
      "clusion": 5653,
      "syntax": 5654,
      "BinaryBi": 5655,
      "rith": 5656,
      "ister": 5657,
      "expand": 5658,
      "homomorphisms": 5659,
      "]))": 5660,
      "Infty": 5661,
      "add_mul": 5662,
      "ympto": 5663,
      "tt": 5664,
      "IsSymm": 5665,
      "commutator": 5666,
      "rs": 5667,
      "state": 5668,
      "_eq_neg": 5669,
      "nth_": 5670,
      "coercion": 5671,
      "mapDomain": 5672,
      "after": 5673,
      "aris": 5674,
      "auge": 5675,
      "NumberField": 5676,
      "itization": 5677,
      "LieAlgebra": 5678,
      "Lindel": 5679,
      "expected": 5680,
      "tensorHom": 5681,
      "periodic": 5682,
      "realiz": 5683,
      "ifford": 5684,
      "of_mem": 5685,
      "universal": 5686,
      "PseudoMetricSpace": 5687,
      "all_goals": 5688,
      "mapBifunctor": 5689,
      "CancelMul": 5690,
      "provided": 5691,
      "linear_": 5692,
      "pow_zero": 5693,
      "ling": 5694,
      "eq_zero_of_": 5695,
      "₂))": 5696,
      "Complement": 5697,
      "rightUnitor": 5698,
      "Orthogonal": 5699,
      "containing": 5700,
      "Bracket": 5701,
      "components": 5702,
      "Arith": 5703,
      "quotient_": 5704,
      "DivisionRing": 5705,
      "Ori": 5706,
      "ske": 5707,
      "usp": 5708,
      "mul_right": 5709,
      "_eq_one_iff": 5710,
      "2023": 5711,
      "called": 5712,
      "extended": 5713,
      "le_refl": 5714,
      "attern": 5715,
      "DerivWithinAt": 5716,
      "_Ici": 5717,
      "Unramified": 5718,
      "HomologyMap": 5719,
      "ideals": 5720,
      "IsNoetherian": 5721,
      "_eq_coe": 5722,
      "command": 5723,
      "Second": 5724,
      "operations": 5725,
      "_simp": 5726,
      "word": 5727,
      "isSheaf": 5728,
      "ton": 5729,
      "Lebes": 5730,
      "Comb": 5731,
      "osable": 5732,
      "Lebesgue": 5733,
      "Etale": 5734,
      "atrices": 5735,
      "IsMaximal": 5736,
      "arily": 5737,
      "Forget": 5738,
      "pushforward": 5739,
      "IsOpenImmersion": 5740,
      "Language": 5741,
      "IsP": 5742,
      "everywhere": 5743,
      "e_η": 5744,
      "Along": 5745,
      "necess": 5746,
      "linearEquiv": 5747,
      "bijection": 5748,
      "ready": 5749,
      "_log": 5750,
      "nsmul": 5751,
      "ole": 5752,
      "quadratic": 5753,
      "Absolute": 5754,
      "Witt": 5755,
      "_iSup": 5756,
      "_of_finite": 5757,
      "distinguished": 5758,
      "multiplicity": 5759,
      "SigmaFinite": 5760,
      "cochain": 5761,
      "NonUnitalNonAssocSemiring": 5762,
      "₀).": 5763,
      "Bounds": 5764,
      "LinearOrdered": 5765,
      "could": 5766,
      "le_top": 5767,
      "smul_comm": 5768,
      "mvarId": 5769,
      "hH": 5770,
      "a1": 5771,
      "lyNormedField": 5772,
      "congruence": 5773,
      "pow_add": 5774,
      "olv": 5775,
      "HasZero": 5776,
      "Primes": 5777,
      "ymptotic": 5778,
      "_closedBall": 5779,
      "stop": 5780,
      "coe_to": 5781,
      "coe_le_": 5782,
      "arrows": 5783,
      "Nhd": 5784,
      "_simps": 5785,
      "already": 5786,
      "huv": 5787,
      "primeCompl": 5788,
      "Reduced": 5789,
      "'))": 5790,
      "Can": 5791,
      "IsBigO": 5792,
      "_or_nonempty": 5793,
      "lists": 5794,
      "takes": 5795,
      "Splits": 5796,
      "xy": 5797,
      "intersection": 5798,
      "binator": 5799,
      "Factorial": 5800,
      "sn": 5801,
      "recur": 5802,
      "cospan": 5803,
      "Fixed": 5804,
      "tien": 5805,
      "ulli": 5806,
      "complet": 5807,
      "RingedSpace": 5808,
      "QuotientGroup": 5809,
      "noulli": 5810,
      "structures": 5811,
      "germ": 5812,
      "_Ioc": 5813,
      "hPz": 5814,
      "NumberTheory": 5815,
      "conjugate": 5816,
      "prob": 5817,
      "stream": 5818,
      "ident": 5819,
      "forall_mem_": 5820,
      "bddAbove": 5821,
      "_sin": 5822,
      "Meas": 5823,
      "mapIso": 5824,
      "succAbove": 5825,
      "affineCombination": 5826,
      "Ess": 5827,
      "those": 5828,
      "applic": 5829,
      "SetRel": 5830,
      "bert": 5831,
      "ZF": 5832,
      "frobenius": 5833,
      "ingSubgroup": 5834,
      "_ofNat": 5835,
      "bel": 5836,
      "replicate": 5837,
      "large": 5838,
      "incl": 5839,
      "ContinuousConstSMul": 5840,
      "Clopen": 5841,
      "not_lt": 5842,
      "lt_of_le": 5843,
      "AnalyticOn": 5844,
      "manifold": 5845,
      "IsPushout": 5846,
      "existing": 5847,
      "ContinuousLinearEquiv": 5848,
      "projections": 5849,
      "string": 5850,
      "subsets": 5851,
      "ediam": 5852,
      "Arithmetic": 5853,
      "saf": 5854,
      "HasSum": 5855,
      "AffineMap": 5856,
      "simplex": 5857,
      "Equi": 5858,
      "leftUnitor": 5859,
      "baseSet": 5860,
      "Lax": 5861,
      "_comap": 5862,
      "Cofiltered": 5863,
      "Side": 5864,
      "Ult": 5865,
      "blen": 5866,
      "pret": 5867,
      "unitIso": 5868,
      "relative": 5869,
      "Extend": 5870,
      "port": 5871,
      "ectiveEpi": 5872,
      "Average": 5873,
      "ow": 5874,
      "algebraMap_eq": 5875,
      "_real": 5876,
      "cosh": 5877,
      "IsCompl": 5878,
      "coe_add": 5879,
      "atest": 5880,
      "hrink": 5881,
      "tendsto_atTop": 5882,
      "_eq_pi": 5883,
      "dvd_": 5884,
      "Andre": 5885,
      "anced": 5886,
      "GroupTheory": 5887,
      "boundary": 5888,
      "ingMap": 5889,
      "Clifford": 5890,
      "IsLocalizedModule": 5891,
      "`@[": 5892,
      "another": 5893,
      "derived": 5894,
      "CommShift": 5895,
      "constantCoeff": 5896,
      "ρ_": 5897,
      "isation": 5898,
      "Derivation": 5899,
      "UpperSet": 5900,
      "encode": 5901,
      "zero_apply": 5902,
      "_Ico": 5903,
      "Karoubi": 5904,
      "must": 5905,
      "λ_": 5906,
      "norm_eq_": 5907,
      "_indep": 5908,
      "LeftKanExtension": 5909,
      "isoWhisker": 5910,
      "PullbackCone": 5911,
      "follows": 5912,
      "belong": 5913,
      "_support": 5914,
      "mar": 5915,
      "nal": 5916,
      "ofDual": 5917,
      "theorems": 5918,
      "_le_right": 5919,
      "nilpot": 5920,
      "NontriviallyNormedField": 5921,
      "remum": 5922,
      "Cell": 5923,
      "dedu": 5924,
      "HasFDerivWithinAt": 5925,
      "Pushforward": 5926,
      "25": 5927,
      "bility": 5928,
      "my": 5929,
      "of_comp": 5930,
      "_sub_C": 5931,
      "asispectrum": 5932,
      "span_singleton": 5933,
      "_Iio": 5934,
      "Totally": 5935,
      "Goal": 5936,
      "list_": 5937,
      "sending": 5938,
      "exacts": 5939,
      "Differential": 5940,
      "position": 5941,
      "CentralSeries": 5942,
      "CD": 5943,
      "InjOn": 5944,
      "StarRing": 5945,
      "operation": 5946,
      "opcycles": 5947,
      "map_apply": 5948,
      "nonrec": 5949,
      "]→": 5950,
      "_ofReal": 5951,
      "∂(": 5952,
      "Colex": 5953,
      "rather": 5954,
      "transformation": 5955,
      "coe_coe": 5956,
      "MultilinearSeries": 5957,
      "safe": 5958,
      "Yang": 5959,
      "vadd": 5960,
      "degenerate": 5961,
      "IsPrimitive": 5962,
      "mul_of_": 5963,
      "_mul_self": 5964,
      "cancel_epi": 5965,
      "Cyclic": 5966,
      "want": 5967,
      "disc": 5968,
      "Bornology": 5969,
      "hypothesis": 5970,
      "caveOn": 5971,
      "Andrew": 5972,
      "erti": 5973,
      "IsFractionRing": 5974,
      "_eq_map": 5975,
      "_2": 5976,
      "_pair": 5977,
      "compo": 5978,
      "equip": 5979,
      "Diagram": 5980,
      "Compatible": 5981,
      "lifts": 5982,
      "integrableOn": 5983,
      "Act": 5984,
      "jacobson": 5985,
      "ski": 5986,
      "_nf": 5987,
      "mk_surjective": 5988,
      "Sep": 5989,
      "normalize": 5990,
      "_equiv": 5991,
      "IsMax": 5992,
      "HasDerivWithinAt": 5993,
      "dependent": 5994,
      "isUniform": 5995,
      "mul_lt_": 5996,
      "iltra": 5997,
      "IsCoprime": 5998,
      "flexive": 5999,
      "linear_combination": 6000,
      "ContinuousSMul": 6001,
      "doub": 6002,
      "isoMk": 6003,
      "IsNilpotent": 6004,
      "Coproducts": 6005,
      "opNorm": 6006,
      "reducible_": 6007,
      "vanish": 6008,
      "Commutative": 6009,
      "Coalgebra": 6010,
      "Nth": 6011,
      "_coeff": 6012,
      "cast_one": 6013,
      "_elim": 6014,
      "not_le": 6015,
      "sum_congr": 6016,
      "-(": 6017,
      "sUnion": 6018,
      "₀'": 6019,
      "isPre": 6020,
      "applied": 6021,
      "_eq_left": 6022,
      "TotalSpace": 6023,
      "toIoc": 6024,
      "AdjoinRoot": 6025,
      "iltration": 6026,
      "coord": 6027,
      "charFun": 6028,
      "fundamental": 6029,
      "OnBall": 6030,
      "generator": 6031,
      "_fintype": 6032,
      "converges": 6033,
      "frontier": 6034,
      "ort_iff": 6035,
      "ofunctor": 6036,
      "coher": 6037,
      "zero_smul": 6038,
      "These": 6039,
      "card_eq_": 6040,
      "itten": 6041,
      "Representation": 6042,
      "Che": 6043,
      "Dᵒᵖ": 6044,
      "_pre": 6045,
      "proves": 6046,
      "ConvexOn": 6047,
      "_monomial": 6048,
      "sums": 6049,
      "Conver": 6050,
      "*][": 6051,
      "toIco": 6052,
      "_nsmul": 6053,
      "formul": 6054,
      "(·.": 6055,
      "wiki": 6056,
      "FormalMultilinearSeries": 6057,
      "opow": 6058,
      "states": 6059,
      "height_": 6060,
      "notes": 6061,
      "returns": 6062,
      "CliffordAlgebra": 6063,
      "(⨆": 6064,
      "MulOneClass": 6065,
      "high": 6066,
      "mapRange": 6067,
      "range_": 6068,
      "..).": 6069,
      "bot_le": 6070,
      "lt_of_le_of_lt": 6071,
      "toura": 6072,
      "coprime": 6073,
      "_of_neg": 6074,
      "eded": 6075,
      "multilinear": 6076,
      "Null": 6077,
      "mfderiv": 6078,
      "tower": 6079,
      "Subfield": 6080,
      "continuousWithinAt_": 6081,
      "written": 6082,
      "ground": 6083,
      "hand": 6084,
      "toLex": 6085,
      "Row": 6086,
      "ContDiffWithinAt": 6087,
      "register": 6088,
      "SemilatticeSup": 6089,
      "similar": 6090,
      "Word": 6091,
      "isimple": 6092,
      "ully": 6093,
      "_append": 6094,
      "Fully": 6095,
      "IsFiltered": 6096,
      "axiom": 6097,
      "division": 6098,
      "isLUB": 6099,
      "Eigenspace": 6100,
      "fract": 6101,
      "codomain": 6102,
      "Code": 6103,
      "Ent": 6104,
      "Apply": 6105,
      "coe_zero": 6106,
      "_smul_eq_": 6107,
      "EventuallyEq": 6108,
      "charpoly": 6109,
      "erw": 6110,
      "isLittleO": 6111,
      "true_and": 6112,
      "API": 6113,
      "IsChain": 6114,
      "Coprod": 6115,
      "call": 6116,
      "memLp": 6117,
      "Subcomplex": 6118,
      "IsSelfAdjoint": 6119,
      "tfae_": 6120,
      "glo": 6121,
      "IsoOf": 6122,
      "_cases": 6123,
      "erate": 6124,
      "fork": 6125,
      "normSq": 6126,
      "neg_neg": 6127,
      "dig": 6128,
      "IsSheaf": 6129,
      "LimitsOfSize": 6130,
      "partite": 6131,
      "Entropy": 6132,
      "df": 6133,
      "Lemma": 6134,
      "stdSimplex": 6135,
      "bas": 6136,
      "zsmul": 6137,
      "isZero": 6138,
      "asc": 6139,
      "_of_subset": 6140,
      "forms": 6141,
      "Auxiliary": 6142,
      "elabor": 6143,
      "IdempotentElem": 6144,
      "hμs": 6145,
      "GLB": 6146,
      "[[": 6147,
      "la": 6148,
      "zel": 6149,
      "HasColimit": 6150,
      "how": 6151,
      "IsTopologicalAddGroup": 6152,
      "ordinate": 6153,
      "_tendsto": 6154,
      "time": 6155,
      "issu": 6156,
      "OrderTop": 6157,
      "intervalIntegral": 6158,
      "coe_le_coe": 6159,
      "rability": 6160,
      "isLocal": 6161,
      "lieBracket": 6162,
      "GrothendieckTopology": 6163,
      "\")": 6164,
      "ew": 6165,
      "na": 6166,
      "zip": 6167,
      "coyoneda": 6168,
      "contradi": 6169,
      "Periodic": 6170,
      "_closed": 6171,
      "`∀": 6172,
      "ares": 6173,
      "Unitization": 6174,
      "one_mem": 6175,
      "Level": 6176,
      "_mul_left": 6177,
      "ablyGenerated": 6178,
      "mem_preimage": 6179,
      "forgetful": 6180,
      "contextual": 6181,
      "Perfect": 6182,
      "usu": 6183,
      "walk": 6184,
      "IsBasis": 6185,
      "uniformly": 6186,
      "Cho": 6187,
      "Eff": 6188,
      "_exact": 6189,
      "dif_pos": 6190,
      "sc": 6191,
      "toFinsupp": 6192,
      "hasFDerivAt": 6193,
      "declarations": 6194,
      "piecewise": 6195,
      ".)": 6196,
      "map_rel": 6197,
      "ChartedSpace": 6198,
      "mem_image_of_mem": 6199,
      "binatorics": 6200,
      "Cons": 6201,
      "UniformContinuous": 6202,
      "conv_rhs": 6203,
      "ail": 6204,
      "BilinForm": 6205,
      "cti": 6206,
      "himp": 6207,
      "coinci": 6208,
      "IsSem": 6209,
      "ambd": 6210,
      "equipped": 6211,
      "Bial": 6212,
      "omit": 6213,
      "lyContinuous": 6214,
      "loc": 6215,
      "final": 6216,
      "add_smul": 6217,
      "supremum": 6218,
      "(↑(": 6219,
      "cott": 6220,
      "Opcycles": 6221,
      "nf": 6222,
      "mem_filter": 6223,
      "support_iff": 6224,
      "pective": 6225,
      "bundle": 6226,
      "symm_apply_apply": 6227,
      "_ker": 6228,
      "t_of_": 6229,
      "hammer": 6230,
      "respective": 6231,
      "]]": 6232,
      "OnWith": 6233,
      "HasFPowerSeries": 6234,
      "delta": 6235,
      "add_sub_cancel": 6236,
      "nth_rw": 6237,
      "gi": 6238,
      "solution": 6239,
      "FiniteLimits": 6240,
      "IndepOn": 6241,
      "DedekindDomain": 6242,
      "ariski": 6243,
      "_distrib": 6244,
      "reorder": 6245,
      "izes": 6246,
      "prec": 6247,
      "Trailing": 6248,
      "WeightSpace": 6249,
      "Operators": 6250,
      "Every": 6251,
      "_congr_": 6252,
      "four": 6253,
      "cos_": 6254,
      "rade": 6255,
      "Fundamental": 6256,
      "smul_smul": 6257,
      "cannot": 6258,
      "UniqueDiff": 6259,
      "NonAssocRing": 6260,
      "rename": 6261,
      "02": 6262,
      "₀}": 6263,
      "otom": 6264,
      "map_sum": 6265,
      "traction": 6266,
      "NoZeroDivisors": 6267,
      "aehler": 6268,
      "Hahn": 6269,
      "mul_le_mul": 6270,
      "_of_mono": 6271,
      "mem_iff": 6272,
      "aylor": 6273,
      "meromorphicOrder": 6274,
      "ba": 6275,
      "WithLp": 6276,
      "provides": 6277,
      "slice": 6278,
      "Gou": 6279,
      "asing": 6280,
      "equalities": 6281,
      "LocallyConstant": 6282,
      "Triple": 6283,
      "epimorphism": 6284,
      "2018": 6285,
      "$>": 6286,
      "rt": 6287,
      "ried": 6288,
      "padicVal": 6289,
      "osableArrows": 6290,
      "mis": 6291,
      "vity": 6292,
      "le_iSup": 6293,
      "OrderDual": 6294,
      "negative": 6295,
      "card_le_": 6296,
      "LeftInverse": 6297,
      "tendsto_const": 6298,
      "denot": 6299,
      "Period": 6300,
      "FullyFaithful": 6301,
      "⊗≫": 6302,
      "havi": 6303,
      "OfModules": 6304,
      "discr": 6305,
      "needed": 6306,
      "verts": 6307,
      "MemClass": 6308,
      "LieModule": 6309,
      "AlgebraicTopology": 6310,
      "nontriviality": 6311,
      "Elim": 6312,
      "ible": 6313,
      "finiteness": 6314,
      "monoids": 6315,
      "ertia": 6316,
      "CW": 6317,
      "Sé": 6318,
      "ëzel": 6319,
      "covariance": 6320,
      "toFinset_": 6321,
      "NormNum": 6322,
      "_hom_app": 6323,
      "Cofi": 6324,
      "Gouëzel": 6325,
      "Sébas": 6326,
      "Ke": 6327,
      "sense": 6328,
      "decompose": 6329,
      "Conden": 6330,
      "HasLimit": 6331,
      "pos_iff": 6332,
      "contract": 6333,
      "QuadraticMap": 6334,
      "fast_instance": 6335,
      "Condensed": 6336,
      "Ray": 6337,
      "aces": 6338,
      "hπ": 6339,
      "matrices": 6340,
      "_eq_right": 6341,
      "ModularForm": 6342,
      "Sébastien": 6343,
      "Metrizable": 6344,
      "⋀^": 6345,
      "toAlgebra": 6346,
      "fld": 6347,
      "pairs": 6348,
      "[⋀^": 6349,
      "chotom": 6350,
      "BigOperators": 6351,
      "fn": 6352,
      "CommSq": 6353,
      "range_comp": 6354,
      "Antidiagonal": 6355,
      "tl": 6356,
      "mulIndicator": 6357,
      "pow_one": 6358,
      "unitary": 6359,
      "Conditionally": 6360,
      "mfld": 6361,
      "not_ge": 6362,
      "triang": 6363,
      "ContDiffOn": 6364,
      "intervals": 6365,
      "shrink": 6366,
      "mul_self": 6367,
      "Dep": 6368,
      "pher": 6369,
      "operator": 6370,
      "La": 6371,
      "Sin": 6372,
      "org": 6373,
      "ableBy": 6374,
      "Process": 6375,
      "ize_": 6376,
      "ContDiffAt": 6377,
      "tourage": 6378,
      "_measure": 6379,
      "buil": 6380,
      "₄)": 6381,
      "_sInf": 6382,
      "opens": 6383,
      "not_not": 6384,
      "warning": 6385,
      "₂`.": 6386,
      "endence": 6387,
      "Parallel": 6388,
      "Combinatorics": 6389,
      "integers": 6390,
      "Respect": 6391,
      "kh": 6392,
      "chhammer": 6393,
      "mem_ker": 6394,
      "Pochhammer": 6395,
      "possible": 6396,
      "superset": 6397,
      "Wide": 6398,
      "ucc": 6399,
      "entries": 6400,
      "equation": 6401,
      "ically": 6402,
      "Variation": 6403,
      "away": 6404,
      "ₗᵢ": 6405,
      "variation": 6406,
      "LinearGroup": 6407,
      "osen": 6408,
      "iteratedDerivWithin": 6409,
      "TangentSpace": 6410,
      "lit": 6411,
      "stable": 6412,
      "toMonoidHom": 6413,
      "IsGalois": 6414,
      "chosen": 6415,
      "Parser": 6416,
      "Valued": 6417,
      "_iInter": 6418,
      "'`,": 6419,
      "1Space": 6420,
      "Cli": 6421,
      "gaussian": 6422,
      "preserve": 6423,
      "geom": 6424,
      "sub_zero": 6425,
      "quasispectrum": 6426,
      "mkApp": 6427,
      "FinitePresentation": 6428,
      "sum_range": 6429,
      "ofIso": 6430,
      "ement": 6431,
      "sub_self": 6432,
      "prev": 6433,
      "Universal": 6434,
      "AlternatingMap": 6435,
      "ativity": 6436,
      "Multiplicity": 6437,
      "difference": 6438,
      "*,": 6439,
      "_finset": 6440,
      "gma": 6441,
      "isEmbedding": 6442,
      "toLin": 6443,
      "Convolution": 6444,
      "RightInverse": 6445,
      "_tac": 6446,
      "complexes": 6447,
      "SecondCountableTopology": 6448,
      "Source": 6449,
      "unused": 6450,
      "mk_eq_mk": 6451,
      "dist_eq": 6452,
      "Sided": 6453,
      "Plane": 6454,
      "Kaehler": 6455,
      "_set": 6456,
      "common": 6457,
      "rame": 6458,
      "ChainComplex": 6459,
      "Dig": 6460,
      "₂₁": 6461,
      "OfFin": 6462,
      "_pos_iff": 6463,
      "Shapes": 6464,
      "reassoc_of": 6465,
      "ProbabilityTheory": 6466,
      "pairingIn": 6467,
      "plus": 6468,
      "otherwise": 6469,
      "mem_range_self": 6470,
      "exponent": 6471,
      "CokernelCofork": 6472,
      "AdicCompletion": 6473,
      "ambda": 6474,
      "_strictMono": 6475,
      "asIso": 6476,
      "zero_le_one": 6477,
      "mkOf": 6478,
      "Length": 6479,
      "long": 6480,
      "IsInitial": 6481,
      "subspace": 6482,
      "conveni": 6483,
      "autom": 6484,
      "_rev": 6485,
      "ofBijective": 6486,
      "Isomorphisms": 6487,
      "braiding": 6488,
      "subset_of_": 6489,
      "nection": 6490,
      "Transc": 6491,
      "measurableSet": 6492,
      "PresheafedSpace": 6493,
      "PseudoEMetricSpace": 6494,
      "SimplicialObject": 6495,
      "(⋂": 6496,
      "_iff_left": 6497,
      "hfi": 6498,
      "perfect": 6499,
      "InfinitePlace": 6500,
      "rotate": 6501,
      "lueData": 6502,
      "₀₁": 6503,
      "uniqu": 6504,
      "Precoverage": 6505,
      "binder": 6506,
      "contradiction": 6507,
      "close": 6508,
      "genWeightSpace": 6509,
      "zpowers": 6510,
      "TwoSided": 6511,
      "AnalyticAt": 6512,
      "Approx": 6513,
      "preserving": 6514,
      "Proof": 6515,
      "Step": 6516,
      "_mul_eq_": 6517,
      "princip": 6518,
      "_factor": 6519,
      "Mass": 6520,
      "zeta": 6521,
      "⟨.": 6522,
      "input": 6523,
      "gether": 6524,
      "IsSeparable": 6525,
      "Inser": 6526,
      "foldl": 6527,
      "parallelPair": 6528,
      "Multipliable": 6529,
      "makes": 6530,
      "_u": 6531,
      "Section": 6532,
      "proofs": 6533,
      "Definition": 6534,
      "(\"": 6535,
      "tract": 6536,
      "NonUnitalStar": 6537,
      "iIndepFun": 6538,
      "inated": 6539,
      "appe": 6540,
      "veblen": 6541,
      "_of_iso": 6542,
      "_of_notMem": 6543,
      "Config": 6544,
      "right_iff": 6545,
      "_tmul": 6546,
      "process": 6547,
      "hts": 6548,
      "curve": 6549,
      "Triangulated": 6550,
      "CStarAlgebra": 6551,
      "rossing": 6552,
      "HS": 6553,
      "_fun": 6554,
      "csSup": 6555,
      "synth": 6556,
      "Truncated": 6557,
      "_index": 6558,
      "hyz": 6559,
      "bernoulli": 6560,
      "localized": 6561,
      "Semiconj": 6562,
      "CyclotomicExtension": 6563,
      "_min": 6564,
      "hD": 6565,
      "geometric": 6566,
      "Inseparable": 6567,
      "fic": 6568,
      "->": 6569,
      "iled": 6570,
      "IsMin": 6571,
      "pow_mul": 6572,
      "deriving": 6573,
      "_mul_right": 6574,
      "foldr": 6575,
      "Induced": 6576,
      "16": 6577,
      "mem_Icc": 6578,
      "isoOf": 6579,
      "arger": 6580,
      "curried": 6581,
      "LieRing": 6582,
      "endental": 6583,
      "mathlib4": 6584,
      "[-": 6585,
      "Loop": 6586,
      "hba": 6587,
      "'']": 6588,
      "NormedRing": 6589,
      "DiscreteTopology": 6590,
      "scheme": 6591,
      "IsInducing": 6592,
      "cone_": 6593,
      "expr": 6594,
      "conv_lhs": 6595,
      "mor": 6596,
      "mop": 6597,
      "splits": 6598,
      "cexp": 6599,
      "IsTerminal": 6600,
      "counitIso": 6601,
      "expressions": 6602,
      "stein": 6603,
      "GCD": 6604,
      "print": 6605,
      "modEq": 6606,
      "OfShape_": 6607,
      "FVar": 6608,
      "IsPrincipal": 6609,
      "KrullDim": 6610,
      "gin": 6611,
      "mulLeft": 6612,
      "coe_inj": 6613,
      "subset_union": 6614,
      "topologicalClosure": 6615,
      "setToFun": 6616,
      "ires": 6617,
      "detail": 6618,
      "valid": 6619,
      "Transpose": 6620,
      "TransGen": 6621,
      "Eric": 6622,
      "Fac": 6623,
      "PDF": 6624,
      "hnm": 6625,
      "_nonZeroDivisors": 6626,
      "basis_": 6627,
      "LipschitzWith": 6628,
      "Splitting": 6629,
      "oangle_": 6630,
      "ctan": 6631,
      "excenter": 6632,
      "not_false": 6633,
      "le_of_eq": 6634,
      "auss": 6635,
      "vecMul": 6636,
      "Braided": 6637,
      "arch": 6638,
      "creasing": 6639,
      "Present": 6640,
      "Enriched": 6641,
      "vars": 6642,
      "richlet": 6643,
      "WO": 6644,
      "Zariski": 6645,
      "_conj": 6646,
      "∞`": 6647,
      "math": 6648,
      "Transform": 6649,
      "**:": 6650,
      "General": 6651,
      "equivalences": 6652,
      "quasiIso": 6653,
      "Fract": 6654,
      "Germ": 6655,
      "Rot": 6656,
      "segment": 6657,
      "forward": 6658,
      "finprod": 6659,
      "SemiringAction": 6660,
      "QuotientMap": 6661,
      "system": 6662,
      "annihilator": 6663,
      "assumptions": 6664,
      "inter_subset_left": 6665,
      "declaration": 6666,
      "success": 6667,
      "sound": 6668,
      "ori": 6669,
      "around": 6670,
      "neg_mul": 6671,
      "edgeSet": 6672,
      "Operator": 6673,
      "invariants": 6674,
      "respectively": 6675,
      "_intCast": 6676,
      "igh": 6677,
      "))))": 6678,
      "algebraMap_apply": 6679,
      "tensorObj": 6680,
      "seud": 6681,
      "constructed": 6682,
      "mfld_simps": 6683,
      "_unique": 6684,
      "man": 6685,
      "always": 6686,
      "mul_mem_": 6687,
      "smul_assoc": 6688,
      "BoundedFormula": 6689,
      "HasStrictFDerivAt": 6690,
      "ym": 6691,
      "related": 6692,
      "2019": 6693,
      "IsPrimitiveRoot": 6694,
      "_from": 6695,
      "setL": 6696,
      "ames": 6697,
      "inf_le_left": 6698,
      "ZeroHypercover": 6699,
      "shows": 6700,
      "IntervalIntegrable": 6701,
      "circum": 6702,
      "EDist": 6703,
      "My": 6704,
      "enough": 6705,
      "_of_forall": 6706,
      "invOf": 6707,
      "orderTop": 6708,
      "differentiableAt_": 6709,
      "Encodable": 6710,
      "requires": 6711,
      "Associated": 6712,
      "Convergence": 6713,
      "mul_iff": 6714,
      "commShift": 6715,
      "Diagonal": 6716,
      "coprime_": 6717,
      "together": 6718,
      "IsTorsionFree": 6719,
      "hether": 6720,
      "bration": 6721,
      "OfNat": 6722,
      "Prelimit": 6723,
      "syn": 6724,
      "wellFounded": 6725,
      "community": 6726,
      "signed": 6727,
      "TM": 6728,
      "ConcaveOn": 6729,
      "le_def": 6730,
      "linearIndependent_": 6731,
      "]`,": 6732,
      "mmand": 6733,
      "subset_span": 6734,
      "Lifting": 6735,
      "versions": 6736,
      "ColimitsOfSize": 6737,
      "elab_as": 6738,
      "aking": 6739,
      "Markov": 6740,
      "elab_as_elim": 6741,
      "cofinite": 6742,
      "cep": 6743,
      "comp_zero": 6744,
      "_of_lt_": 6745,
      "OfPreserves": 6746,
      "nonZeroDivisors": 6747,
      "spanning": 6748,
      "presentation": 6749,
      "Induction": 6750,
      "works": 6751,
      "IsAdd": 6752,
      "cones": 6753,
      "[\"": 6754,
      "hγ": 6755,
      "init": 6756,
      "ndist": 6757,
      "tingale": 6758,
      "LowerSet": 6759,
      "collection": 6760,
      "ZFSet": 6761,
      "List_": 6762,
      "⟨{": 6763,
      "toFunctor": 6764,
      "map_neg": 6765,
      "rwitz": 6766,
      "not_and": 6767,
      "measureReal": 6768,
      "AlgCat": 6769,
      "arctan": 6770,
      "id_apply": 6771,
      "consist": 6772,
      "MVarId": 6773,
      "eRk": 6774,
      "altern": 6775,
      "zero_comp": 6776,
      "Equalizer": 6777,
      "ches": 6778,
      "filtered": 6779,
      "_nontrivial": 6780,
      "(-(": 6781,
      "vanishing": 6782,
      "_im": 6783,
      "ComposableArrows": 6784,
      "HasHomology": 6785,
      "one_le": 6786,
      "KernelFork": 6787,
      "PosMul": 6788,
      "divisor": 6789,
      "Match": 6790,
      "OrthonormalBasis": 6791,
      "grou": 6792,
      "lev": 6793,
      "ged": 6794,
      "doesn": 6795,
      "truncGE": 6796,
      "Since": 6797,
      "alCalculus": 6798,
      "sitivity": 6799,
      "MonotoneOn": 6800,
      "assuming": 6801,
      "ctible": 6802,
      "enum": 6803,
      "irreducible_": 6804,
      "induce": 6805,
      "measure_mono": 6806,
      "codRestrict": 6807,
      "GradedObject": 6808,
      "_star": 6809,
      "yn": 6810,
      "isBasis": 6811,
      "env": 6812,
      "recOn": 6813,
      "Separation": 6814,
      "chartAt": 6815,
      "Seq_": 6816,
      "le_succ": 6817,
      "image_preimage": 6818,
      "ramification": 6819,
      "Ultra": 6820,
      "Sphere": 6821,
      "wide": 6822,
      "idx": 6823,
      "_eq_univ": 6824,
      "AtFilter": 6825,
      "ring_nf": 6826,
      "orders": 6827,
      "mul_div_cancel": 6828,
      "FC": 6829,
      "getD": 6830,
      "WittVector": 6831,
      "_of_eq": 6832,
      "homologyMap": 6833,
      "Taylor": 6834,
      "_fin": 6835,
      "ice": 6836,
      "mul_sub": 6837,
      "mkQ": 6838,
      "Atlas": 6839,
      "State": 6840,
      "principle": 6841,
      "groupoid": 6842,
      "Me": 6843,
      "repe": 6844,
      "unless": 6845,
      "Forall": 6846,
      "field_simp": 6847,
      "push_": 6848,
      "translate": 6849,
      "ArchimedeanClass": 6850,
      "realize_": 6851,
      "Acc": 6852,
      "eball": 6853,
      "hZ": 6854,
      "Stream": 6855,
      "centroid": 6856,
      "setLIntegral": 6857,
      "Sites": 6858,
      "coproduct": 6859,
      "uple": 6860,
      "_len": 6861,
      "orsor": 6862,
      "UniqueUpTo": 6863,
      "covBy": 6864,
      "CWComplex": 6865,
      "Least": 6866,
      "Rₚ": 6867,
      "completion": 6868,
      "rightOp": 6869,
      "trans_eq": 6870,
      "introduce": 6871,
      "Elements": 6872,
      "Time": 6873,
      "]?": 6874,
      "_pred": 6875,
      "rewrite": 6876,
      "MulLeft": 6877,
      "rules": 6878,
      "Command": 6879,
      "Scalars_": 6880,
      "DirectLimit": 6881,
      "24": 6882,
      "_eq_inv": 6883,
      "EquivLike": 6884,
      "exists_prop": 6885,
      "density": 6886,
      "fullyFaithful": 6887,
      "StrongDual": 6888,
      "dpow": 6889,
      "ross": 6890,
      "submodules": 6891,
      "brations": 6892,
      "Expansion": 6893,
      "IsSucc": 6894,
      "NonUnitalSubsemiring": 6895,
      "OfShape_of_": 6896,
      "dif_neg": 6897,
      "exactly": 6898,
      "_compact": 6899,
      "hou": 6900,
      "Homotopic": 6901,
      "08": 6902,
      "=]": 6903,
      "}]": 6904,
      "probability": 6905,
      "_invFun": 6906,
      "finite_of_": 6907,
      "SpecialFunctions": 6908,
      "inter_subset_right": 6909,
      "ContinuousFunctionalCalculus": 6910,
      "Bl": 6911,
      "PNat": 6912,
      "ugate": 6913,
      "Separating": 6914,
      "and_imp": 6915,
      "allows": 6916,
      "Desc": 6917,
      "inv_inv": 6918,
      "lt_of_lt_of_le": 6919,
      "Normalization": 6920,
      "Lawful": 6921,
      "h_eq": 6922,
      "_nonpos": 6923,
      "SpanSingleton": 6924,
      "nnreal": 6925,
      "postcomp": 6926,
      "_mem_nhdsWithin": 6927,
      "ga": 6928,
      "gges": 6929,
      "hE": 6930,
      "som": 6931,
      "wlog": 6932,
      "haar": 6933,
      "ToType": 6934,
      "transform": 6935,
      "big": 6936,
      "FreeGroup": 6937,
      "separating": 6938,
      "warn": 6939,
      "Lat": 6940,
      "glu": 6941,
      "emy": 6942,
      "IsEmbedding": 6943,
      "esOver": 6944,
      "hasProd": 6945,
      "restricted": 6946,
      "Skew": 6947,
      "H2": 6948,
      "Wies": 6949,
      "tz": 6950,
      "eremy": 6951,
      "submatrix": 6952,
      "MulSemiringAction": 6953,
      "noncomm": 6954,
      "PointUniqueUpTo": 6955,
      "_le_iff_le_": 6956,
      "ennreal": 6957,
      "Jeremy": 6958,
      "elin": 6959,
      "Curry": 6960,
      "DerivedCategory": 6961,
      "ArithmeticFunction": 6962,
      "issues": 6963,
      "$.": 6964,
      "_lift": 6965,
      "_principal": 6966,
      "rid": 6967,
      "Coord": 6968,
      "_iff_not_": 6969,
      "whole": 6970,
      "Commelin": 6971,
      "differentiableAt": 6972,
      "lookup": 6973,
      "Padic": 6974,
      "tu": 6975,
      "IsSub": 6976,
      "coeff_": 6977,
      "signs": 6978,
      "or_gt": 6979,
      "_y": 6980,
      "_zpow": 6981,
      "_bijective": 6982,
      "IsCyclotomicExtension": 6983,
      "_null": 6984,
      "pow_": 6985,
      "absNorm": 6986,
      "(∅": 6987,
      "ech": 6988,
      "inc": 6989,
      "remain": 6990,
      "wever": 6991,
      "differential": 6992,
      "multiple": 6993,
      "powersetCard": 6994,
      "appear": 6995,
      "Wieser": 6996,
      "VS": 6997,
      "VSub": 6998,
      "}(": 6999,
      "had": 7000,
      "_sh": 7001,
      "Oplax": 7002,
      "algebraMap_injective": 7003,
      "..)": 7004,
      "LightProfinite": 7005,
      "lieBracketWithin": 7006,
      ">]": 7007,
      "₁₂.": 7008,
      "produ": 7009,
      "cast_add": 7010,
      "add_right_": 7011,
      "vectorSpan": 7012,
      "derivatives": 7013,
      "normalizer": 7014,
      "_nhds_zero": 7015,
      "coe_one": 7016,
      "ordinal": 7017,
      "MonObj": 7018,
      "arcsin": 7019,
      "snoc": 7020,
      "MetrizableSpace": 7021,
      "[>]": 7022,
      "_adjoin": 7023,
      "cmp": 7024,
      "HasProd": 7025,
      "_iff_mem": 7026,
      "comp_map": 7027,
      "LocallyRingedSpace": 7028,
      "Dirichlet": 7029,
      "sequences": 7030,
      "ModelWithCorners": 7031,
      "ia": 7032,
      "pseudo": 7033,
      "edHom": 7034,
      "Cospan": 7035,
      "preadditive": 7036,
      "ContinuousAdd": 7037,
      "_bound": 7038,
      "mem_singleton_iff": 7039,
      "HoCat": 7040,
      "Half": 7041,
      "eb": 7042,
      "whether": 7043,
      "point_": 7044,
      "ilbert": 7045,
      "val_injective": 7046,
      "precomp": 7047,
      "_interior": 7048,
      "Scott": 7049,
      "_iff_exists": 7050,
      "LieSubalgebra": 7051,
      "gm": 7052,
      "ason": 7053,
      "Init": 7054,
      "restrict_apply": 7055,
      "FintypeCat": 7056,
      "output": 7057,
      "whiskerRight_": 7058,
      "says": 7059,
      "dedup": 7060,
      "dest": 7061,
      "one_apply": 7062,
      "LiesOver": 7063,
      "scope": 7064,
      "digits": 7065,
      "<$>": 7066,
      "Message": 7067,
      "_setOf": 7068,
      "hψ": 7069,
      "_eq_iSup": 7070,
      "not_gt": 7071,
      "biInter": 7072,
      "LatticeHom": 7073,
      "_0_0": 7074,
      "push_cast": 7075,
      "Lit": 7076,
      "Von": 7077,
      "sect": 7078,
      "rip": 7079,
      "vers": 7080,
      "_ne_zero_iff": 7081,
      "eq_zero_or": 7082,
      "discreteTopology": 7083,
      "Johan": 7084,
      "le_sup_left": 7085,
      "hω": 7086,
      "_of_epi": 7087,
      "_sub_one_": 7088,
      "_at": 7089,
      "}).": 7090,
      "MulHom": 7091,
      "coe_smul": 7092,
      "traverse": 7093,
      "IsClosedUnder": 7094,
      "directly": 7095,
      "Weakly": 7096,
      "sorted": 7097,
      "tfae_have": 7098,
      "Triv": 7099,
      "average": 7100,
      "embed": 7101,
      "functional": 7102,
      "maximum": 7103,
      "ShiftedHom": 7104,
      "Weights": 7105,
      "stalkMap": 7106,
      "completed": 7107,
      "bc": 7108,
      "NonUnitalSubalgebra": 7109,
      "Support_": 7110,
      "Radical": 7111,
      "'')": 7112,
      "TVS": 7113,
      "ever": 7114,
      "aller": 7115,
      "strongly": 7116,
      "cocompact": 7117,
      "leftOp": 7118,
      "conditions": 7119,
      "nnnorm_": 7120,
      "Supported": 7121,
      "GeneratedBy": 7122,
      "NullMeasurableSet": 7123,
      "compProd": 7124,
      "logb": 7125,
      "_int_": 7126,
      "two_mul": 7127,
      "Nonneg": 7128,
      "CompactSupport": 7129,
      "PiLp": 7130,
      "amilies": 7131,
      "ordinates": 7132,
      "admits": 7133,
      "Torsor": 7134,
      "_dual": 7135,
      "inertia": 7136,
      "emi": 7137,
      "orting": 7138,
      "Env": 7139,
      "auxiliary": 7140,
      "permutations": 7141,
      "law": 7142,
      "tal": 7143,
      "atter": 7144,
      "hypotheses": 7145,
      "_eq_sub": 7146,
      "_of_isOpen": 7147,
      "_cont": 7148,
      "witt": 7149,
      "concat": 7150,
      "piCongr": 7151,
      "PosNum": 7152,
      "twin": 7153,
      "Circuit": 7154,
      "17": 7155,
      "Nhds": 7156,
      "m0": 7157,
      "{(": 7158,
      "IsDedekindDomain": 7159,
      "HasSub": 7160,
      "Minimal": 7161,
      "failure": 7162,
      "immersion": 7163,
      "_eq_sum": 7164,
      "fixingSubgroup": 7165,
      "lipschitzWith": 7166,
      "Radi": 7167,
      "resolve_left": 7168,
      "infix": 7169,
      "toMeasure": 7170,
      "AddChar": 7171,
      "Trivialization": 7172,
      "BooleanAlgebra": 7173,
      "homeomorphism": 7174,
      "Equivalent": 7175,
      "tendsto_const_nhds": 7176,
      "ParallelPair": 7177,
      "RespectsIso": 7178,
      "_root": 7179,
      "gauge": 7180,
      "nndist": 7181,
      "Finpartition": 7182,
      "functorial": 7183,
      "guard_target": 7184,
      "seudofunctor": 7185,
      "Radius": 7186,
      "AtLeast": 7187,
      "hasDerivAt": 7188,
      "subset_iff": 7189,
      "belongs": 7190,
      "Av": 7191,
      "CDF": 7192,
      "eigen": 7193,
      "mul_neg": 7194,
      "_add_le": 7195,
      "files": 7196,
      "StrictAnti": 7197,
      "ModEq": 7198,
      "nonempty_iff": 7199,
      "Sheafify": 7200,
      "Entourage": 7201,
      "_of_not_is": 7202,
      "EuclideanSpace": 7203,
      "Lindelof": 7204,
      "map_rel_iff": 7205,
      "site": 7206,
      "destruct": 7207,
      "compare": 7208,
      "equi": 7209,
      "sum_apply": 7210,
      "intervalIntegrable": 7211,
      "Computation": 7212,
      "$[": 7213,
      "equivOf": 7214,
      "Asymptotic": 7215,
      "connectedComponent": 7216,
      "2017": 7217,
      "_insert_": 7218,
      "uliftYoneda": 7219,
      "stopped": 7220,
      "AB": 7221,
      "iting": 7222,
      "acts": 7223,
      "elt": 7224,
      "OrderTopology": 7225,
      "IsSplit": 7226,
      "DecidableRel": 7227,
      "Involutive": 7228,
      "colum": 7229,
      "Canonical": 7230,
      "_length": 7231,
      "_k": 7232,
      "oriz": 7233,
      "ofFn": 7234,
      "IsRel": 7235,
      "Equiv_symm": 7236,
      "Standard": 7237,
      "le_inf": 7238,
      "RootPairing": 7239,
      "EffectiveEpi": 7240,
      "Bu": 7241,
      "lan": 7242,
      "sk": 7243,
      "stract": 7244,
      "irrefl": 7245,
      "le_total": 7246,
      "inf_le_right": 7247,
      "natTrans": 7248,
      "Cases": 7249,
      "][": 7250,
      "ns": 7251,
      "rewr": 7252,
      "IsProbabilityMeasure": 7253,
      "eq_one": 7254,
      "member": 7255,
      "ecker": 7256,
      "mem_ball": 7257,
      "AddLeft": 7258,
      "hasFinite": 7259,
      "AddMonoidWithOne": 7260,
      "whiskeringLeft": 7261,
      "synthInstance": 7262,
      "Eigen": 7263,
      "isAlgebraic": 7264,
      "mations": 7265,
      "---": 7266,
      "quares": 7267,
      "agree": 7268,
      "_base": 7269,
      "QuasiFinite": 7270,
      "Bilinear": 7271,
      "Ct": 7272,
      "_ae": 7273,
      "₂`,": 7274,
      "sub_add_cancel": 7275,
      "random": 7276,
      "existence": 7277,
      "hip": 7278,
      "start": 7279,
      "ae_restrict": 7280,
      "coherent": 7281,
      "AtLeastTwo": 7282,
      "'),": 7283,
      "EDist_": 7284,
      "Fr": 7285,
      "tree": 7286,
      "NormedAddGroup": 7287,
      "eq_top_iff": 7288,
      "XIso": 7289,
      "mem_insert_": 7290,
      "ringHom": 7291,
      "isOpenMap": 7292,
      "CauSeq": 7293,
      "apply_fun": 7294,
      "Solution": 7295,
      "}`.": 7296,
      "toMeasurable": 7297,
      "hfx": 7298,
      "Pointed": 7299,
      "hQz": 7300,
      "smaller": 7301,
      "bicategory": 7302,
      "reflect": 7303,
      "rol": 7304,
      "mul_pow": 7305,
      "ame_": 7306,
      "norm_smul": 7307,
      "one_sub": 7308,
      "atically": 7309,
      "subgroups": 7310,
      "ronecker": 7311,
      "AbsoluteValue": 7312,
      "[*]": 7313,
      "hol": 7314,
      "mv": 7315,
      "reason": 7316,
      "instanti": 7317,
      "Surj": 7318,
      "Logic": 7319,
      "):": 7320,
      "Names": 7321,
      "Sim": 7322,
      "Van": 7323,
      "tom": 7324,
      "toEmbedding": 7325,
      "op_comp": 7326,
      "_counit": 7327,
      "VectorMeasure": 7328,
      "ramificationIdx": 7329,
      "jes": 7330,
      "ℤ_": 7331,
      "Connection": 7332,
      "forget_": 7333,
      "symmDiff": 7334,
      "Ident": 7335,
      "$\\": 7336,
      "toPre": 7337,
      "toEnd": 7338,
      "BoundedOrder": 7339,
      "_rnDeriv": 7340,
      "dist_eq_norm": 7341,
      "eltjes": 7342,
      "Fst": 7343,
      "₃).": 7344,
      "→⋆": 7345,
      "anach": 7346,
      "exchange": 7347,
      "))`": 7348,
      "Final": 7349,
      "tay": 7350,
      "igad": 7351,
      "forall_congr": 7352,
      "_ne_one": 7353,
      "lintegral_": 7354,
      "lash": 7355,
      "pos_right": 7356,
      "'',": 7357,
      "Porting": 7358,
      "lid": 7359,
      "Subcategory": 7360,
      "congr_hom": 7361,
      "delab": 7362,
      "ByMonic": 7363,
      "DistribLattice": 7364,
      "blocks": 7365,
      "taylor": 7366,
      "inct": 7367,
      "itting": 7368,
      "Generators": 7369,
      "Riemann": 7370,
      "SemilatticeInf": 7371,
      "triangulated": 7372,
      "pattern": 7373,
      "ensive": 7374,
      "simpl": 7375,
      "lyClosed": 7376,
      "mulRight": 7377,
      "to_fun": 7378,
      "lowerCentralSeries": 7379,
      "automatically": 7380,
      "bol": 7381,
      "mul_nonneg": 7382,
      "mem_span_singleton": 7383,
      "_toFun": 7384,
      "est": 7385,
      "LinearDisjoint": 7386,
      "beat": 7387,
      "cycleType": 7388,
      "ED": 7389,
      "revert": 7390,
      "delete": 7391,
      "decode": 7392,
      "IsBase": 7393,
      "and_comm": 7394,
      "div_iff": 7395,
      "nown": 7396,
      "AddMonoidAlgebra": 7397,
      "toAddMonoidHom": 7398,
      "mem_support_iff": 7399,
      "two_ne_zero": 7400,
      "le_sup_right": 7401,
      "ofFinite": 7402,
      "hac": 7403,
      "rand": 7404,
      "_le_of_le": 7405,
      "generate_": 7406,
      "MVars": 7407,
      "Mer": 7408,
      "IsCycle": 7409,
      "IsCofiltered": 7410,
      "AddZeroClass": 7411,
      "div_mul_": 7412,
      "keep": 7413,
      "Monomial": 7414,
      "PreservesLimit": 7415,
      "generalize": 7416,
      "Avigad": 7417,
      "&&": 7418,
      "raw": 7419,
      "_nth": 7420,
      "map_eq": 7421,
      "covers": 7422,
      "L2": 7423,
      "Mic": 7424,
      "orth": 7425,
      "reatest": 7426,
      "armonic": 7427,
      "colim": 7428,
      "comparison": 7429,
      "implement": 7430,
      "hcd": 7431,
      "inferType": 7432,
      "injEq": 7433,
      "distribution": 7434,
      "ReflectLT": 7435,
      "Asymptotics": 7436,
      "found": 7437,
      "_of_nonpos": 7438,
      "fromBlock": 7439,
      "Uniformity": 7440,
      "separate": 7441,
      "_nnreal": 7442,
      "VonN": 7443,
      "VAdd": 7444,
      "]).": 7445,
      "hι": 7446,
      "nol": 7447,
      "}⟩": 7448,
      "toContinuousLinearMap": 7449,
      "depend": 7450,
      "OneHypercover": 7451,
      "rotation": 7452,
      "nolint": 7453,
      "Filtration": 7454,
      "Snd": 7455,
      "mΩ": 7456,
      "t2": 7457,
      "𝓝ˢ": 7458,
      "reach": 7459,
      "IsNat": 7460,
      "interpret": 7461,
      "casesOn": 7462,
      "Powers": 7463,
      "Trace": 7464,
      "circleAverage": 7465,
      "MonoidWithZeroHom": 7466,
      "VonNBounded": 7467,
      "Det": 7468,
      "Herm": 7469,
      "II": 7470,
      "h_le": 7471,
      "cyclesMap": 7472,
      "Good": 7473,
      "KaehlerDifferential": 7474,
      "`∑": 7475,
      "known": 7476,
      "wf": 7477,
      "tian": 7478,
      "mming": 7479,
      "Content": 7480,
      "hmem": 7481,
      "hfc": 7482,
      "hxU": 7483,
      "cast_zero": 7484,
      "minFac": 7485,
      "etrically": 7486,
      "⟩⟩⟩": 7487,
      "trichotom": 7488,
      "Antisymm": 7489,
      ")⁻¹)": 7490,
      "omega0": 7491,
      "bn": 7492,
      "tsum_": 7493,
      "eq_self": 7494,
      "presieve": 7495,
      "continuous_const": 7496,
      "Three": 7497,
      "global": 7498,
      "13": 7499,
      "LFunction": 7500,
      "dbl": 7501,
      "hint": 7502,
      "map_eq_": 7503,
      "applying": 7504,
      "finity": 7505,
      "hasFDerivAt_": 7506,
      "Localized": 7507,
      "getLast": 7508,
      "jointly": 7509,
      "_basic": 7510,
      "FreeMonoid": 7511,
      "le_iff_le": 7512,
      "brantObject": 7513,
      "commShiftIso": 7514,
      "mulVec": 7515,
      "rati": 7516,
      "_eq_true": 7517,
      "const_mul": 7518,
      "antor": 7519,
      "Rᵐᵒᵖ": 7520,
      "mgf": 7521,
      "⌋₊": 7522,
      "isLocally": 7523,
      "endow": 7524,
      "StableUnder": 7525,
      "before": 7526,
      "Clust": 7527,
      "while": 7528,
      "QuasiIso": 7529,
      "discrim": 7530,
      "Cluster": 7531,
      "28": 7532,
      "CC": 7533,
      "iIndep": 7534,
      "coproducts": 7535,
      "whenever": 7536,
      "totally": 7537,
      "!)": 7538,
      "SFinite": 7539,
      "IsManifold": 7540,
      "entry": 7541,
      "derive": 7542,
      "_eq_mul": 7543,
      "Magma": 7544,
      "dices": 7545,
      "LeftHomologyData": 7546,
      "pullbacks": 7547,
      "hjk": 7548,
      "mixed": 7549,
      "hs_": 7550,
      "lish": 7551,
      "atern": 7552,
      "decomposition": 7553,
      "config": 7554,
      "LinearIsometryEquiv": 7555,
      "ign": 7556,
      "LocallyUniformlyOn": 7557,
      "cfc_tac": 7558,
      "CommMonoidWithZero": 7559,
      "Vert": 7560,
      "necessary": 7561,
      "27": 7562,
      "_sigma": 7563,
      "cpow": 7564,
      "isP": 7565,
      "ented": 7566,
      "appLE": 7567,
      "Reflection": 7568,
      "_le_norm": 7569,
      "one_eq_": 7570,
      "smul_le": 7571,
      "consists": 7572,
      "rootsOfUnity": 7573,
      "Computable": 7574,
      "problem": 7575,
      "aternion": 7576,
      "Dav": 7577,
      "Frobenius": 7578,
      "‖`": 7579,
      "fied": 7580,
      "Interior": 7581,
      "degrees": 7582,
      "lb": 7583,
      "·))": 7584,
      "inside": 7585,
      "Cohomology": 7586,
      "NormedAlgebra": 7587,
      "essentially": 7588,
      "enny": 7589,
      "ReflectLE": 7590,
      "Body": 7591,
      "IM": 7592,
      "_biUnion": 7593,
      "ofDig": 7594,
      "toSet": 7595,
      "infimum": 7596,
      "inter_comm": 7597,
      "fromSpec": 7598,
      "_countable": 7599,
      ");": 7600,
      "sha": 7601,
      "iff_of_": 7602,
      "opf": 7603,
      "_of_preserves": 7604,
      "File": 7605,
      "eventually_": 7606,
      "correct": 7607,
      "uniqueDiff": 7608,
      "PosSMul": 7609,
      "extensions": 7610,
      "AnalyticOnNhd": 7611,
      "Kind": 7612,
      "Sto": 7613,
      "])]": 7614,
      "add_lt_add": 7615,
      "itian": 7616,
      "#[]": 7617,
      "Lau": 7618,
      "_vsub": 7619,
      "₄}": 7620,
      "le_iff_": 7621,
      "Post": 7622,
      "Hemi": 7623,
      "More": 7624,
      "Whi": 7625,
      "`#": 7626,
      "gres": 7627,
      "₂),": 7628,
      "of_mem_": 7629,
      "mul_sum": 7630,
      "On_of_": 7631,
      "RightKanExtension": 7632,
      "ObjObj": 7633,
      "content": 7634,
      "Intertwin": 7635,
      "SheafedSpace": 7636,
      "actions": 7637,
      "WellOrder": 7638,
      "CompHausLike": 7639,
      "CancelMulZero": 7640,
      "rwitzZeta": 7641,
      "C_mul_": 7642,
      "Jᵒᵖ": 7643,
      "Kenny": 7644,
      "_continuous": 7645,
      "_anti": 7646,
      "krullDim": 7647,
      "von": 7648,
      "IsConnected": 7649,
      "Equiv_apply": 7650,
      "introdu": 7651,
      "Center": 7652,
      "multiples": 7653,
      "Try": 7654,
      "cobounded": 7655,
      "actually": 7656,
      "fin_cases": 7657,
      "defining": 7658,
      "adjac": 7659,
      "conditional": 7660,
      "Binder": 7661,
      "Import": 7662,
      "DenselyOrdered": 7663,
      "Presentable": 7664,
      "Dvd": 7665,
      "families": 7666,
      "₁₁": 7667,
      "sup_le": 7668,
      "_zero_iff": 7669,
      "NonUnitalSubring": 7670,
      "guard_": 7671,
      "Plus": 7672,
      "words": 7673,
      "──": 7674,
      "Coyoneda": 7675,
      "MulPos": 7676,
      "Pullbacks": 7677,
      "CancelMonoid": 7678,
      "_subtype_val": 7679,
      "current": 7680,
      "IsLUB": 7681,
      "Counting": 7682,
      "recursive": 7683,
      "Bialg": 7684,
      "Hermitian": 7685,
      "ε0": 7686,
      "ishes": 7687,
      "relev": 7688,
      "cotangent": 7689,
      "iving": 7690,
      "eq_univ": 7691,
      "eq_bot_": 7692,
      "hfs": 7693,
      "resolution": 7694,
      "inv_mem": 7695,
      "continuous_iff_": 7696,
      "strictAnti": 7697,
      "not_forall": 7698,
      "place": 7699,
      "restrictScalars_": 7700,
      "IsSFiniteKernel": 7701,
      "avail": 7702,
      "eq_empty_or_nonempty": 7703,
      "Jacobson": 7704,
      "ratio": 7705,
      "toAdd": 7706,
      "invt": 7707,
      "hp0": 7708,
      "exponent_": 7709,
      "Christian": 7710,
      "available": 7711,
      "Greatest": 7712,
      "hta": 7713,
      "sorry": 7714,
      "inant": 7715,
      "infinite_": 7716,
      "⁻¹,": 7717,
      "ContMDiffWithinAt": 7718,
      "approxim": 7719,
      "Signed": 7720,
      "olvable": 7721,
      "EDS": 7722,
      "#{": 7723,
      "ofArrows": 7724,
      "WellFoundedLT": 7725,
      "ytingAlgebra": 7726,
      "Day": 7727,
      "Ep": 7728,
      "nm": 7729,
      "though": 7730,
      "formations": 7731,
      "mem_sup": 7732,
      "inv_mul": 7733,
      "nonsingular": 7734,
      "been": 7735,
      "distinct": 7736,
      "LocallyCompactSpace": 7737,
      "BinaryCofan": 7738,
      "BinaryFan": 7739,
      "IsTopologicalGroup": 7740,
      "keys": 7741,
      "smeval": 7742,
      "Integers": 7743,
      "Hug": 7744,
      "Hilbert": 7745,
      "_prime": 7746,
      "sheaves": 7747,
      "CompleteLinearOrder": 7748,
      "isOpenEmbedding": 7749,
      "fixedPoints": 7750,
      "shiftFunctorAdd": 7751,
      "Integer": 7752,
      "setToL1": 7753,
      "WeierstrassCurve": 7754,
      "pos_iff_ne_zero": 7755,
      "SignedMeasure": 7756,
      "Hughes": 7757,
      "body": 7758,
      "mu": 7759,
      "npow": 7760,
      "zero_lt_": 7761,
      "Equation": 7762,
      "mem_union": 7763,
      "grap": 7764,
      "hasFDerivWithinAt": 7765,
      "ordConnected": 7766,
      "ne_zero_of_": 7767,
      "Thru": 7768,
      "RatFunc": 7769,
      "countably": 7770,
      "eqToIso": 7771,
      "weightedVSub": 7772,
      "required": 7773,
      "Symmetric": 7774,
      "still": 7775,
      "dotProduct": 7776,
      "a0": 7777,
      "bly": 7778,
      "lap": 7779,
      "think": 7780,
      "sec": 7781,
      "mac": 7782,
      "idence": 7783,
      "chas": 7784,
      "IsOpenEmbedding": 7785,
      "NormedAddGroupHom": 7786,
      "23": 7787,
      "Lead": 7788,
      "IsIdempotentElem": 7789,
      "Cocycle": 7790,
      "smul_one": 7791,
      "liftOn": 7792,
      "subset_univ": 7793,
      "respectsIso": 7794,
      "OnePow": 7795,
      "toIocMod": 7796,
      "chastic": 7797,
      ":)": 7798,
      "Ore": 7799,
      "_iInf": 7800,
      "_of_nonempty": 7801,
      "ache": 7802,
      "imod": 7803,
      "OnFun": 7804,
      "imports": 7805,
      "izers": 7806,
      "hgf": 7807,
      "LocallyFiniteOrder": 7808,
      "HasPullbacks": 7809,
      "consisting": 7810,
      "`≤": 7811,
      "grade": 7812,
      "mulSupport": 7813,
      "Contain": 7814,
      "Monovary": 7815,
      "map_top": 7816,
      "ContinuousMul": 7817,
      "monomorphism": 7818,
      "suffici": 7819,
      "DimensionLT": 7820,
      "degree_eq_": 7821,
      "Definable": 7822,
      "Perf": 7823,
      "csInf": 7824,
      "₁`,": 7825,
      "₄]": 7826,
      "vection": 7827,
      "made": 7828,
      "add_left_": 7829,
      "Substructure": 7830,
      "Uniqu": 7831,
      "neg_one_": 7832,
      "_mul_le": 7833,
      "toIcoMod": 7834,
      "Merten": 7835,
      "guard_hyp": 7836,
      "Bit": 7837,
      "simps_": 7838,
      "invol": 7839,
      "Point_": 7840,
      "notion": 7841,
      "preservesLimit": 7842,
      "initialize_": 7843,
      "ne_of_gt": 7844,
      "TruncGE": 7845,
      "IsOrderedAddMonoid": 7846,
      "simps_projections": 7847,
      "initialize_simps_projections": 7848,
      ")?": 7849,
      "of_injective": 7850,
      "aries": 7851,
      "mem_inter": 7852,
      "Transfer": 7853,
      "ordan": 7854,
      "SeminormedRing": 7855,
      "QuadraticForm": 7856,
      "However": 7857,
      "VariationOn": 7858,
      "0Space": 7859,
      "ofLex": 7860,
      "variate": 7861,
      "mk0": 7862,
      "Stone": 7863,
      "transfer": 7864,
      "differenti": 7865,
      "color": 7866,
      "David": 7867,
      "Rob": 7868,
      "[],": 7869,
      "](": 7870,
      "ised": 7871,
      "IsOrderedRing": 7872,
      "enter": 7873,
      "MonoOver": 7874,
      "transformations": 7875,
      "tichain": 7876,
      "MeasurableEquiv": 7877,
      "IsSimple": 7878,
      "FDerivWithinAt_": 7879,
      "contDiffOn": 7880,
      "_induced": 7881,
      "_integral": 7882,
      "isSucc": 7883,
      "IsStar": 7884,
      "Finite_": 7885,
      "_le_self": 7886,
      "multiset": 7887,
      "ersally": 7888,
      "Schwar": 7889,
      "Boundary": 7890,
      "Params": 7891,
      "relevant": 7892,
      "_set_": 7893,
      "_abs": 7894,
      "codiscrete": 7895,
      "toAddSubgroup": 7896,
      "AddTorsor": 7897,
      "LocalAt": 7898,
      "biSup": 7899,
      "Default": 7900,
      "coeff_zero": 7901,
      "monad": 7902,
      "Constructions": 7903,
      "HasZeroMorphisms": 7904,
      "Ultrafilter": 7905,
      "Onto": 7906,
      "HasLimitsOfShape": 7907,
      "($(": 7908,
      "exponential": 7909,
      "shortComplex": 7910,
      "alternatingGroup": 7911,
      "Clique": 7912,
      "instantiate": 7913,
      "Dir": 7914,
      "solve": 7915,
      "≠]": 7916,
      "residue": 7917,
      "velo": 7918,
      "toAffine": 7919,
      "mul_le": 7920,
      "cast_mul": 7921,
      "outParam": 7922,
      "trailing": 7923,
      "separated": 7924,
      "_left_of_": 7925,
      "translation": 7926,
      "explicitly": 7927,
      "Skeleton": 7928,
      "Blank": 7929,
      "ht_": 7930,
      "xeter": 7931,
      "IsPath": 7932,
      "coe_lt_": 7933,
      "surd": 7934,
      "Ordnode": 7935,
      "label": 7936,
      "_X_pow": 7937,
      "SeparationQuotient": 7938,
      "IB": 7939,
      "Im": 7940,
      "[≠]": 7941,
      "ofAdd": 7942,
      "of_iso": 7943,
      "Repr": 7944,
      "extract": 7945,
      "Positivity": 7946,
      "range_eq_top": 7947,
      "bottom": 7948,
      "Distribution": 7949,
      "weights": 7950,
      "expressed": 7951,
      "Flor": 7952,
      "mpullback": 7953,
      "absurd": 7954,
      "IsEquivalence": 7955,
      "Coher": 7956,
      "mem_of_mem": 7957,
      "HasPushout": 7958,
      "one_lt": 7959,
      "measurability": 7960,
      "SMulRegular": 7961,
      "generating": 7962,
      "MaxOrder": 7963,
      "ConvexSpace": 7964,
      "Partrec": 7965,
      "BddBelow": 7966,
      "deterministic": 7967,
      "apted": 7968,
      "embDomain": 7969,
      "coincide": 7970,
      "$$": 7971,
      "OrderEmbedding": 7972,
      "_sub_one": 7973,
      "FiniteColimits": 7974,
      "Primcodable": 7975,
      "Covering": 7976,
      "replac": 7977,
      "IsBoundedUnder": 7978,
      "Ite": 7979,
      "_and_": 7980,
      "-->": 7981,
      "mem_cons": 7982,
      "HasBinary": 7983,
      "LieIdeal": 7984,
      "abs_of_nonneg": 7985,
      "Root_": 7986,
      "period": 7987,
      "--------": 7988,
      "usual": 7989,
      "macro": 7990,
      "CMDiff": 7991,
      "bar": 7992,
      "hκ": 7993,
      "√(": 7994,
      "err": 7995,
      "Isometric": 7996,
      "lete_": 7997,
      "mem_support": 7998,
      "mk_iff": 7999,
      "integrals": 8000,
      "lineDeriv": 8001,
      "PushoutCocone": 8002,
      "(∫⁻": 8003,
      "Ré": 8004,
      "_deriv": 8005,
      "_true": 8006,
      "alo": 8007,
      "mul_eq_zero": 8008,
      "easi": 8009,
      "mem_toFinset": 8010,
      "map_inv": 8011,
      "ringKrullDim": 8012,
      "IsOpenMap": 8013,
      "ConvexComb": 8014,
      "Singular": 8015,
      "(⨅": 8016,
      "hν": 8017,
      "ultra": 8018,
      "Assum": 8019,
      "hμν": 8020,
      "IsPreconnected": 8021,
      "jacobiTheta": 8022,
      "GCDMonoid": 8023,
      "details": 8024,
      "infinity": 8025,
      "linearGrowth": 8026,
      "span_le": 8027,
      "AlgClosed": 8028,
      "ermat": 8029,
      "_of_isIso": 8030,
      "_toReal": 8031,
      "InvPair": 8032,
      "triangle_": 8033,
      "_gt_": 8034,
      "mem_of_superset": 8035,
      "synthe": 8036,
      "\".": 8037,
      "_with": 8038,
      "⟩⟩,": 8039,
      "_sorry": 8040,
      "TypeVec": 8041,
      "one_pow": 8042,
      "relIndex": 8043,
      "definitional": 8044,
      "analyticOn": 8045,
      "ConjAct": 8046,
      "ElabM": 8047,
      "Doorn": 8048,
      "curriedTensor": 8049,
      "isNilpot": 8050,
      "isGLB": 8051,
      "IsReduced": 8052,
      "rule": 8053,
      "AlgebraTensor": 8054,
      "map_comp_assoc": 8055,
      "Closeds": 8056,
      "extendScalars": 8057,
      "SemiRingCat": 8058,
      "_rat": 8059,
      "allest": 8060,
      "PairwiseDisjoint": 8061,
      "artbeat": 8062,
      "AlgebraTensorModule": 8063,
      "Mˣ": 8064,
      "Rem": 8065,
      "gal": 8066,
      "ux": 8067,
      "vis": 8068,
      "Unop": 8069,
      "_le_pow": 8070,
      "dist_comm": 8071,
      "parameter": 8072,
      "AntitoneOn": 8073,
      "padicValNat": 8074,
      "ZariskiLocalAt": 8075,
      "Mehta": 8076,
      "09": 8077,
      "Some": 8078,
      "cd": 8079,
      "she": 8080,
      "sInter": 8081,
      "lier": 8082,
      "mul_pos": 8083,
      "_apply_eq_": 8084,
      "right_of_": 8085,
      "Link": 8086,
      "absolutelyContinuous": 8087,
      "Jacobi": 8088,
      "application": 8089,
      "Jordan": 8090,
      "cthickening": 8091,
      "Ref": 8092,
      "map_prod": 8093,
      "LinearIndepOn": 8094,
      "finiteDimensional": 8095,
      "Prepartition": 8096,
      "calculus": 8097,
      "Centroid": 8098,
      "convenient": 8099,
      "Floris": 8100,
      "isNat": 8101,
      "IsArtinian": 8102,
      "hael": 8103,
      "FinMeas": 8104,
      "bracket": 8105,
      "divi": 8106,
      "_iff_dvd": 8107,
      "Antiv": 8108,
      "comp_obj": 8109,
      "**.": 8110,
      "Antivary": 8111,
      "*`": 8112,
      "Bhavi": 8113,
      "Hea": 8114,
      "inseparable": 8115,
      "toSubalgebra": 8116,
      "HasColimitsOfShape": 8117,
      "le_of_ne": 8118,
      "Comap": 8119,
      "good": 8120,
      "_reverse": 8121,
      "_eq_top_iff": 8122,
      "corresponds": 8123,
      "martingale": 8124,
      "SkewMonoidAlgebra": 8125,
      "Bhavik": 8126,
      "MapObj": 8127,
      "obvious": 8128,
      "mem_insert": 8129,
      "Normalized": 8130,
      "chainTop": 8131,
      "T1Space": 8132,
      "_seq": 8133,
      "⨂[": 8134,
      "variant_": 8135,
      "Extr": 8136,
      "SupClosed": 8137,
      "RingHomInvPair": 8138,
      "_monotone": 8139,
      "proved": 8140,
      "illing": 8141,
      "continue": 8142,
      "ratCast": 8143,
      "IsStableUnderBaseChange": 8144,
      "nilpotent": 8145,
      "_basicOpen": 8146,
      "emes": 8147,
      "abled": 8148,
      "FieldTheory": 8149,
      "eraseLead": 8150,
      "continuous_toFun": 8151,
      "cer": 8152,
      "toSpanSingleton": 8153,
      "irkh": 8154,
      "sum_eq_": 8155,
      "temp": 8156,
      "OneSpectrum": 8157,
      "conjTranspose": 8158,
      "Completely": 8159,
      "differentiableWithinAt": 8160,
      "_orthogonal": 8161,
      "SmallCategory": 8162,
      "Irrational": 8163,
      "irkhoff": 8164,
      "Cusp": 8165,
      "WSeq": 8166,
      "isCompl": 8167,
      "itary": 8168,
      "CompIso": 8169,
      "atibility": 8170,
      "UniqueFactorization": 8171,
      "vertical": 8172,
      "ConnectedSpace": 8173,
      "borel": 8174,
      "IsCount": 8175,
      "Patri": 8176,
      "mul_ne_zero": 8177,
      "_apply_apply": 8178,
      "previous": 8179,
      "Ann": 8180,
      "integralClosure": 8181,
      "auto": 8182,
      "compactSpace": 8183,
      "PreservesColimit": 8184,
      "_left_iff": 8185,
      "RecOn": 8186,
      "Patrick": 8187,
      "hat": 8188,
      "ihom": 8189,
      "te_": 8190,
      "zag": 8191,
      "IsFinite": 8192,
      "of_eq": 8193,
      "Rewrite": 8194,
      "_same": 8195,
      "Suppose": 8196,
      "permutation": 8197,
      "LaxMonoidal": 8198,
      "some_": 8199,
      "GF": 8200,
      "TF": 8201,
      "vil": 8202,
      "vBy": 8203,
      "₃⟩": 8204,
      "coinduced": 8205,
      "nonempty_": 8206,
      "SpecialLinearGroup": 8207,
      "IsBigOWith": 8208,
      "XY": 8209,
      "ZNum": 8210,
      "`∫": 8211,
      "`⊤": 8212,
      "yi": 8213,
      "₁))": 8214,
      "mem_iInter": 8215,
      "nonym": 8216,
      "_subset_Icc": 8217,
      "Join": 8218,
      "isClosedEmbedding": 8219,
      "Foo": 8220,
      "gn": 8221,
      "infty": 8222,
      "EquivProd": 8223,
      "urely": 8224,
      "UniformOnFun": 8225,
      "_fac": 8226,
      "modify": 8227,
      "gcd_dvd": 8228,
      "ifield": 8229,
      "test_sorry": 8230,
      "circleMap": 8231,
      "Theorems": 8232,
      "normalizedFactors": 8233,
      "_eq_pi_div_two": 8234,
      ".\"": 8235,
      "cusp": 8236,
      "mass": 8237,
      "sub_nonneg": 8238,
      "s_eq": 8239,
      "add_tsub": 8240,
      "singleton_subset_iff": 8241,
      "outer": 8242,
      "Sylow": 8243,
      "specific": 8244,
      "colon": 8245,
      "LowerSemi": 8246,
      "hasDerivWithinAt": 8247,
      "Constructor": 8248,
      "InstancesCommute": 8249,
      "BinaryBiproduct": 8250,
      "SemiconjBy": 8251,
      "imm": 8252,
      "⋆-": 8253,
      "unk": 8254,
      "_le_nhds": 8255,
      "le_one": 8256,
      "relrank": 8257,
      "ouvil": 8258,
      "_ne_bot": 8259,
      "Sorted": 8260,
      "_castSucc": 8261,
      "Results": 8262,
      "gmented": 8263,
      "fvarId": 8264,
      "boxes": 8265,
      "Rˣ": 8266,
      "_max": 8267,
      "kg": 8268,
      "kronecker": 8269,
      "sibly": 8270,
      "Uncurry": 8271,
      "⟨⟨⟨": 8272,
      "bour": 8273,
      "DistribSMul": 8274,
      "sheafify": 8275,
      "Places": 8276,
      "later": 8277,
      "nowfl": 8278,
      "trivializationAt": 8279,
      "MGF": 8280,
      "sted": 8281,
      "_of_Z": 8282,
      "_add_left": 8283,
      "Attr": 8284,
      "preorder": 8285,
      "negOnePow": 8286,
      "continuous_id": 8287,
      "_subsingleton": 8288,
      "expGrowth": 8289,
      "_inv_app": 8290,
      "Internal": 8291,
      "multiset_": 8292,
      "connectedSpace": 8293,
      "upperBounds": 8294,
      "generalized": 8295,
      "Temp": 8296,
      "uliftFunctor": 8297,
      "ClusterPt": 8298,
      "artbeats": 8299,
      "$,": 8300,
      "15": 8301,
      "retract": 8302,
      "ofMul": 8303,
      "toHom": 8304,
      "_of_forall_": 8305,
      "Semilinear": 8306,
      "Define": 8307,
      "Banach": 8308,
      "sson": 8309,
      "vadd_": 8310,
      "itable": 8311,
      "urther": 8312,
      "map_sup": 8313,
      "precoverage": 8314,
      "weierstrass": 8315,
      "pedia": 8316,
      "facts": 8317,
      "PointwiseLeftKanExtension": 8318,
      "extChartAt_": 8319,
      "While": 8320,
      "nowflaking": 8321,
      "Here": 8322,
      "gram": 8323,
      "β_": 8324,
      "μs": 8325,
      "₃'": 8326,
      "inversion": 8327,
      "decomp": 8328,
      "ash": 8329,
      "map_comap": 8330,
      "equivFun": 8331,
      "integral_comp": 8332,
      "insertion": 8333,
      "urelyInseparable": 8334,
      "/`": 8335,
      "atic": 8336,
      "dir": 8337,
      "eu": 8338,
      "sic": 8339,
      "_eq_pow": 8340,
      "hfm": 8341,
      "le_iInf": 8342,
      "OpenCover": 8343,
      "_smul_left": 8344,
      "cartan": 8345,
      "disjointed": 8346,
      "precise": 8347,
      "TFAE": 8348,
      "Reach": 8349,
      "Snowflaking": 8350,
      "⦌)": 8351,
      "mapId": 8352,
      "mem_bot": 8353,
      "mono_left": 8354,
      "genEigenspace": 8355,
      "generators": 8356,
      "nonempty_fintype": 8357,
      "lt_of_le_of_ne": 8358,
      "Geom": 8359,
      "numer": 8360,
      "additional": 8361,
      "Return": 8362,
      "synthInstanceQ": 8363,
      "Reachable": 8364,
      "gauss": 8365,
      "IsNon": 8366,
      "Coequalizer": 8367,
      "implementation": 8368,
      "_small": 8369,
      "ird": 8370,
      "Realize": 8371,
      "lifted": 8372,
      "definitionally": 8373,
      "isOpen_compl": 8374,
      "WalkingPair": 8375,
      "reachable": 8376,
      "Brow": 8377,
      "Floor": 8378,
      "Mac": 8379,
      "IsRoot": 8380,
      "Subfunctor": 8381,
      "truncated": 8382,
      "equalizers": 8383,
      "OnePoint": 8384,
      "_isOpen": 8385,
      "notation3": 8386,
      "embeddings": 8387,
      "_dom": 8388,
      "GaloisConnection": 8389,
      "balanced": 8390,
      "single_apply": 8391,
      "piecewise_": 8392,
      "Fré": 8393,
      "invtSubmodule": 8394,
      "ZMOD": 8395,
      "hence": 8396,
      "kl": 8397,
      "⋃₀": 8398,
      "ley": 8399,
      "toHomeomorph": 8400,
      "mapRingHom": 8401,
      "PiSystem": 8402,
      "_tl": 8403,
      "zpow_neg": 8404,
      "smallest": 8405,
      "HalfPlane": 8406,
      "Ctx": 8407,
      "`|": 8408,
      "ηs": 8409,
      "₁₂)": 8410,
      "mapEquiv": 8411,
      "Ortho": 8412,
      "Derivative": 8413,
      "comp_app": 8414,
      "smulRight": 8415,
      "reduced": 8416,
      "NonUnitalRing": 8417,
      "hIJ": 8418,
      "ExpChar": 8419,
      "_cpow": 8420,
      "loops": 8421,
      "Annihilator": 8422,
      "_ae_eq_": 8423,
      "done": 8424,
      "orov": 8425,
      "arget_": 8426,
      "IsCardinal": 8427,
      "_of_subset_": 8428,
      "limitCone": 8429,
      "export": 8430,
      "formally": 8431,
      "failed": 8432,
      "preservesColimit": 8433,
      "SuccOrder": 8434,
      "Factorisation": 8435,
      "analyticOrder": 8436,
      "Degenne": 8437,
      "double": 8438,
      "repeat": 8439,
      "Rémy": 8440,
      "))⟩": 8441,
      "subgraph": 8442,
      "rule_": 8443,
      "mem_top": 8444,
      "Atomic": 8445,
      "image_univ": 8446,
      "lt_or": 8447,
      "ring1": 8448,
      "closure_eq": 8449,
      "distTriang": 8450,
      "cancell": 8451,
      "_bot_": 8452,
      "lean4": 8453,
      "matroid": 8454,
      "disjoint_left": 8455,
      "prime_pow": 8456,
      "isPreconnected": 8457,
      "rule_sets": 8458,
      "+*": 8459,
      "_quotient_": 8460,
      "pSide": 8461,
      "aper": 8462,
      "opEquiv": 8463,
      "_eq_norm": 8464,
      "MulRight": 8465,
      "MulChar": 8466,
      "OppSide": 8467,
      "negY": 8468,
      "eq_zero_iff": 8469,
      "HasStrictDerivAt": 8470,
      "vanishingIdeal": 8471,
      "umul": 8472,
      "Consider": 8473,
      "what": 8474,
      "le_or_gt": 8475,
      "image_": 8476,
      "HasM": 8477,
      "FiniteProducts": 8478,
      "clm": 8479,
      "iSupIndep": 8480,
      "binomial": 8481,
      "Identi": 8482,
      "CardinalLT": 8483,
      "normalization": 8484,
      "Traj": 8485,
      "Conjugate": 8486,
      "skew": 8487,
      "norm_eq_abs": 8488,
      "OfFinOrder": 8489,
      ">>": 8490,
      "isen": 8491,
      "const_smul": 8492,
      "kernels": 8493,
      "schemes": 8494,
      "ouville": 8495,
      "Lift_": 8496,
      "mfderivWithin": 8497,
      "rin": 8498,
      "thm": 8499,
      "of_equiv": 8500,
      "sublists": 8501,
      "fine_": 8502,
      "mem_comap": 8503,
      "pow_two": 8504,
      "_homo": 8505,
      "essImage": 8506,
      "maximalAtlas": 8507,
      "finsetSum": 8508,
      "itespace": 8509,
      "Laur": 8510,
      "not_false_eq_true": 8511,
      "Raw": 8512,
      "godic": 8513,
      "toPartialEquiv": 8514,
      "eqv": 8515,
      "sub_iff": 8516,
      "nonUnital": 8517,
      "orderIso": 8518,
      "erior": 8519,
      "depends": 8520,
      "''}": 8521,
      "_isClosed": 8522,
      "OpensMeasurableSpace": 8523,
      "minimalPrimes": 8524,
      "_mod_cast": 8525,
      "FullSubcategory": 8526,
      "spine": 8527,
      "isoWhiskerLeft": 8528,
      "bifunctor": 8529,
      "isInducing": 8530,
      "LeftExtension": 8531,
      "better": 8532,
      "IsSymmetric": 8533,
      "14": 8534,
      "hang": 8535,
      "injection": 8536,
      "reme": 8537,
      "sub_apply": 8538,
      "Reflexive": 8539,
      "RingCon": 8540,
      "mem_compl": 8541,
      "izing": 8542,
      "Unitary": 8543,
      "PowerBasis": 8544,
      "factorThru": 8545,
      "Restricts": 8546,
      "modelWithCorners": 8547,
      "padicNorm": 8548,
      "Applic": 8549,
      "shrinkYoneda": 8550,
      "TwoSidedIdeal": 8551,
      "MarkovKernel": 8552,
      "Es": 8553,
      "₃`": 8554,
      "∏'": 8555,
      "intermediate": 8556,
      "ae_of_": 8557,
      "HeightOneSpectrum": 8558,
      "meromorphicOrderAt_": 8559,
      "inertiaDeg": 8560,
      "isenstein": 8561,
      "analo": 8562,
      "andid": 8563,
      "bij": 8564,
      "OneHom": 8565,
      "corec": 8566,
      "OrdConnected": 8567,
      "Antidiag": 8568,
      "constants": 8569,
      "DayConvolution": 8570,
      "Ru": 8571,
      "_finite": 8572,
      "ulo": 8573,
      "IsClopen": 8574,
      "_of_add": 8575,
      "minimum": 8576,
      "_le_mk": 8577,
      "LimitCone": 8578,
      "_four": 8579,
      "lift_mk": 8580,
      "PresheafOfModules": 8581,
      "_congr_ae": 8582,
      "CMDiffAt": 8583,
      "Hopf": 8584,
      "[@": 8585,
      "_exchange": 8586,
      "wit": 8587,
      "∞`.": 8588,
      "and_congr": 8589,
      "possibly": 8590,
      "coverEntropy": 8591,
      "clog": 8592,
      "hal": 8593,
      "alanced": 8594,
      "ofClass": 8595,
      "coordinates": 8596,
      "extra": 8597,
      "cast_natCast": 8598,
      "inverseImage": 8599,
      "Numbers": 8600,
      "sigmaFinite": 8601,
      "take_": 8602,
      "GradedMonoid": 8603,
      "FirstOrder": 8604,
      "dimH": 8605,
      "rinsic": 8606,
      "Rₘ": 8607,
      "_pure": 8608,
      "often": 8609,
      "mapCone": 8610,
      "sub_sub": 8611,
      "subring": 8612,
      "various": 8613,
      "hasPullback": 8614,
      "cessible": 8615,
      "preimage_image": 8616,
      "NonUnitalSemiring": 8617,
      "declare": 8618,
      "cofan": 8619,
      "FiberBundle": 8620,
      "HasZeroObject": 8621,
      "atteries": 8622,
      "ml": 8623,
      "scale": 8624,
      "ofπ": 8625,
      "_of_subsingleton": 8626,
      "sub_one_": 8627,
      "subtraction": 8628,
      "fier": 8629,
      "IsStrongly": 8630,
      "isSymm": 8631,
      "Equivalences": 8632,
      "mul_le_mul_of_nonneg": 8633,
      "IntertwiningMap": 8634,
      "18": 8635,
      "Ax": 8636,
      "Spectral": 8637,
      "_cons_": 8638,
      "orthonormal": 8639,
      "riemann": 8640,
      "applies": 8641,
      "addHaar": 8642,
      "ToPresheaf": 8643,
      "Polar": 8644,
      "internal": 8645,
      "natIso": 8646,
      "_le_sum": 8647,
      "roots_": 8648,
      "Fail": 8649,
      "RestrictScalars": 8650,
      "minimalPeriod": 8651,
      "Crossing": 8652,
      "Fres": 8653,
      "Sₚ": 8654,
      "expansion": 8655,
      "IsDense": 8656,
      "inv_comp": 8657,
      "RelIso": 8658,
      "lines": 8659,
      "Expon": 8660,
      "PartOrd": 8661,
      "isUnit_iff": 8662,
      "FinMeasAdditive": 8663,
      "_δ": 8664,
      "uIoc": 8665,
      "reflexive": 8666,
      "ript": 8667,
      "lot": 8668,
      "_iff_injective": 8669,
      "_split": 8670,
      "On_univ": 8671,
      "Hash": 8672,
      "tendsto_nhds": 8673,
      "outside": 8674,
      "view": 8675,
      "Cofinal": 8676,
      "Semidef": 8677,
      "actionHom": 8678,
      "primesOver": 8679,
      "IsMulCommutative": 8680,
      "HomologyMapData": 8681,
      "UniqueDiffWithinAt": 8682,
      "Transcendental": 8683,
      "_con": 8684,
      "hsub": 8685,
      "sat": 8686,
      "IsDiscrete": 8687,
      "of_surjective": 8688,
      "hfin": 8689,
      "images": 8690,
      "image_subset_iff": 8691,
      "disabled": 8692,
      "Set_iff": 8693,
      "InvOn": 8694,
      "card_image": 8695,
      "Version": 8696,
      "nhds_basis": 8697,
      "stronger": 8698,
      "determinant": 8699,
      "MeromorphicAt": 8700,
      "Origin": 8701,
      "()": 8702,
      "Hu": 8703,
      "_prod_": 8704,
      "liter": 8705,
      "isTerminal": 8706,
      "ater": 8707,
      "stated": 8708,
      "_eq_range": 8709,
      "transfinite": 8710,
      "castLE": 8711,
      "algebraMap_eq_": 8712,
      "finrank_eq_": 8713,
      "homologyFunctor": 8714,
      "forall_exists_": 8715,
      "IsNoetherianRing": 8716,
      "ₙₐ": 8717,
      "ℚ_": 8718,
      "ones": 8719,
      "ofι": 8720,
      "summand": 8721,
      "whnf": 8722,
      "div_self": 8723,
      "declName": 8724,
      "normalize_": 8725,
      "IsStrictly": 8726,
      "seminormed": 8727,
      "DirectedOn": 8728,
      "le_max_left": 8729,
      "skeleton": 8730,
      "Sₘ": 8731,
      "`<": 8732,
      "sen": 8733,
      "lect": 8734,
      "hel": 8735,
      "ciInf": 8736,
      "pointed": 8737,
      "IsClosedEmbedding": 8738,
      "needs": 8739,
      "iterate_succ": 8740,
      "free_": 8741,
      "hχ": 8742,
      "light": 8743,
      "_iff_le": 8744,
      "across": 8745,
      "comp_inv": 8746,
      "Quaternion": 8747,
      "NonUnitalNonAssocRing": 8748,
      "cycleFactors": 8749,
      "IsAffineOpen": 8750,
      "differentiability": 8751,
      "Alex": 8752,
      "LittleO": 8753,
      "isMaximal": 8754,
      "deed": 8755,
      "_eq_iInf": 8756,
      "Until": 8757,
      "Strongly": 8758,
      "Semifield": 8759,
      "odory": 8760,
      "cast_nonneg": 8761,
      "ringEquiv": 8762,
      "Transl": 8763,
      "subset_ground": 8764,
      "nerve": 8765,
      "eq_or_lt": 8766,
      "ae_eq_mk": 8767,
      "Schwartz": 8768,
      "Frame": 8769,
      "_j": 8770,
      "_q": 8771,
      "₀⟩": 8772,
      "thema": 8773,
      "toSpec": 8774,
      "IsCentral": 8775,
      "Make": 8776,
      "map_surjective": 8777,
      "neg_add_cancel": 8778,
      "DerivAt_": 8779,
      "domains": 8780,
      "_cancel_right": 8781,
      "Descent": 8782,
      "_tensorHom": 8783,
      "orizon": 8784,
      "preserved": 8785,
      "||": 8786,
      "endre": 8787,
      "one_left": 8788,
      "StarModule": 8789,
      "basis_tl": 8790,
      "representative": 8791,
      "CauchySeq": 8792,
      "Constructible": 8793,
      "SameSide": 8794,
      "wbtw": 8795,
      "sel": 8796,
      "IsFiniteKernel": 8797,
      "Inclusion": 8798,
      "hx0": 8799,
      "linearIndependent": 8800,
      "Nonsingular": 8801,
      "pointwise_": 8802,
      "subset_adjoin": 8803,
      "StarOrderedRing": 8804,
      "IsLittleO": 8805,
      "necessarily": 8806,
      "isoWhiskerRight": 8807,
      "None": 8808,
      "X_sub_C": 8809,
      "ibn": 8810,
      "develo": 8811,
      "Toδ": 8812,
      "le_mul": 8813,
      "Fib": 8814,
      "igzag": 8815,
      "modulo": 8816,
      "New": 8817,
      "NoMaxOrder": 8818,
      "bit1": 8819,
      "indepFun": 8820,
      "IsIntegralClosure": 8821,
      "and_true": 8822,
      "AbelianGroup": 8823,
      "_of_pos_left": 8824,
      "Check": 8825,
      "ibniz": 8826,
      "(#": 8827,
      "Batteries": 8828,
      "based": 8829,
      "ean": 8830,
      "nb": 8831,
      "nsmul_eq_mul": 8832,
      "xx": 8833,
      "eq_iff_": 8834,
      "MulSupport": 8835,
      "Relative": 8836,
      "cluster": 8837,
      "FreeAbelianGroup": 8838,
      "assumes": 8839,
      "mappingCone": 8840,
      "build": 8841,
      "Sbtw": 8842,
      "`/`": 8843,
      "eo": 8844,
      "ofInjective": 8845,
      "ofId": 8846,
      "toColex": 8847,
      "proving": 8848,
      "map_inf": 8849,
      "beth": 8850,
      "_iff_surjective": 8851,
      "SMulZeroClass": 8852,
      "le_of_le": 8853,
      "LiftRel": 8854,
      "WalkingParallelPair": 8855,
      "wikipedia": 8856,
      "ggestions": 8857,
      "29": 8858,
      "Wbtw": 8859,
      "cof_": 8860,
      "spher": 8861,
      "₁),": 8862,
      "once": 8863,
      "anen": 8864,
      "geon": 8865,
      "logarith": 8866,
      "image_image": 8867,
      "cast_le": 8868,
      "succ_eq_": 8869,
      "getApp": 8870,
      "Sections": 8871,
      "generates": 8872,
      "rootMultiplicity": 8873,
      "Abs_": 8874,
      "_smul_right": 8875,
      "identifies": 8876,
      "isEmpty_or_nonempty": 8877,
      "hΦ": 8878,
      "εpos": 8879,
      "deduce": 8880,
      "of_ne": 8881,
      "map_le_iff_le_": 8882,
      "pack": 8883,
      "_eq_preimage": 8884,
      "norm_mul": 8885,
      "ListBlank": 8886,
      "RightHomology": 8887,
      "presheaves": 8888,
      "iSup_le": 8889,
      "partialSup": 8890,
      "bddBelow": 8891,
      "MDifferentiableWithinAt": 8892,
      "MessageData": 8893,
      "coe_lt_coe": 8894,
      "GlueData": 8895,
      "nsmul_": 8896,
      "zmod": 8897,
      "¬(": 8898,
      "sub_pos": 8899,
      "mul_def": 8900,
      "hf0": 8901,
      "CommGroupWithZero": 8902,
      "PreZeroHypercover": 8903,
      "filters": 8904,
      "_fourier": 8905,
      "modular": 8906,
      "insertNth": 8907,
      "convexComb": 8908,
      "_repr": 8909,
      "le_max_right": 8910,
      "slice_lhs": 8911,
      "Massot": 8912,
      "Definitions": 8913,
      "IsRelPrime": 8914,
      "Balanced": 8915,
      "rest": 8916,
      "ements": 8917,
      "toFinite": 8918,
      "lyFlat": 8919,
      "IsHomogeneous": 8920,
      "acy": 8921,
      "_add_right": 8922,
      "₂₃]": 8923,
      "VectorBundle": 8924,
      "sheafification": 8925,
      "ContMDiffOn": 8926,
      "msg": 8927,
      "map_le_iff_le_comap": 8928,
      "El": 8929,
      "ks": 8930,
      "indices": 8931,
      "ensure": 8932,
      "IsNormal": 8933,
      "_eq_prod": 8934,
      "_eq_bot_iff": 8935,
      "inv_smul_": 8936,
      "algebraize": 8937,
      "measurable_": 8938,
      "_or_": 8939,
      "Factors_": 8940,
      "_sqrt": 8941,
      "IsSemisimple": 8942,
      "Show": 8943,
      "án": 8944,
      "₀`.": 8945,
      "isChain": 8946,
      "IsProper": 8947,
      "user": 8948,
      "_iff_norm": 8949,
      "Restriction": 8950,
      "normAt": 8951,
      "RightHomologyData": 8952,
      "BoundedContinuousFunction": 8953,
      "differentiableWithinAt_": 8954,
      "Applied": 8955,
      "paths": 8956,
      "Height_": 8957,
      "IsStandard": 8958,
      "trichotomy": 8959,
      "orizontal": 8960,
      "So": 8961,
      "mi": 8962,
      "squares": 8963,
      "yet": 8964,
      "ΓSpec": 8965,
      "ofList": 8966,
      "toAddSubmonoid": 8967,
      "CompTriple": 8968,
      "mem_closedBall": 8969,
      "hasFDerivWithinAt_": 8970,
      "Antichain": 8971,
      "multivariate": 8972,
      "cycleOf": 8973,
      "specializes": 8974,
      "analyticAt_": 8975,
      "vecCons": 8976,
      "whiskeringRight": 8977,
      "unique_": 8978,
      "HasSubst": 8979,
      "_A": 8980,
      "_unop": 8981,
      "emod": 8982,
      "funext_iff": 8983,
      "mulSingle": 8984,
      "eq_bot_iff": 8985,
      "having": 8986,
      "_of_eventuallyEq": 8987,
      "_eq_span": 8988,
      "veral": 8989,
      "set_iff": 8990,
      "negation": 8991,
      "Except": 8992,
      "Anne": 8993,
      "_mul_const": 8994,
      "SMulPos": 8995,
      "At_iff": 8996,
      "Relations": 8997,
      "alize": 8998,
      "arrowCongr": 8999,
      "notMem_": 9000,
      "StrictMonoOn": 9001,
      "cofi": 9002,
      "considered": 9003,
      "Baanen": 9004,
      "card_le_card": 9005,
      "Insert": 9006,
      "basis_hd": 9007,
      "versable": 9008,
      "P1": 9009,
      "Ser": 9010,
      "x1": 9011,
      "isNoetherian": 9012,
      "segm": 9013,
      "imodule": 9014,
      "neg_mem": 9015,
      "openSeg": 9016,
      "lifting": 9017,
      "FilterBasis": 9018,
      "elementwise": 9019,
      "Strictly": 9020,
      "Biproduct": 9021,
      "associative": 9022,
      "_cos": 9023,
      "prod_cons": 9024,
      "_prodMk": 9025,
      "FormallyUnramified": 9026,
      "mixedEmbedding": 9027,
      "_adj": 9028,
      "isRegular": 9029,
      "residueField": 9030,
      "mapCocone": 9031,
      "proposition": 9032,
      "_of_directed": 9033,
      "quot_": 9034,
      "AddRight": 9035,
      "_bind": 9036,
      "_tsum": 9037,
      "synonym": 9038,
      "composing": 9039,
      "PointUniqueUpToIso": 9040,
      "certain": 9041,
      "PEmpty": 9042,
      "`⊥": 9043,
      "sα": 9044,
      "inator": 9045,
      "too": 9046,
      "IsTriangulated": 9047,
      "endomorphism": 9048,
      "chine": 9049,
      "Stmt": 9050,
      "hasFPowerSeries": 9051,
      "ObjIso": 9052,
      "IsSquare": 9053,
      "..,": 9054,
      "_const_mul": 9055,
      "_diff": 9056,
      "_finset_": 9057,
      "might": 9058,
      "tsupport": 9059,
      "siz": 9060,
      "toString": 9061,
      "eters": 9062,
      "entence": 9063,
      "mem_Ico": 9064,
      "prefix": 9065,
      "HasLeft": 9066,
      "one_le_iff": 9067,
      "Example": 9068,
      "cast_pos": 9069,
      "singleFunctor": 9070,
      "real_inner": 9071,
      "ne_one": 9072,
      "Cylinder": 9073,
      "vanishes": 9074,
      "assert": 9075,
      "flatten": 9076,
      "IsOrderedMonoid": 9077,
      "LebesgueDecomposition": 9078,
      "coordChange": 9079,
      ")!": 9080,
      "Tran": 9081,
      "sbtw": 9082,
      "va": 9083,
      "|(": 9084,
      "}))": 9085,
      "~[": 9086,
      "₄,": 9087,
      "suitable": 9088,
      "coordinate": 9089,
      "Int_": 9090,
      "measurePreserving": 9091,
      "RelCWComplex": 9092,
      "attices": 9093,
      "PreservesLimitsOfShape": 9094,
      "PreservesColimitsOfShape": 9095,
      "Properties": 9096,
      "Using": 9097,
      "]),": 9098,
      "_false": 9099,
      "ship": 9100,
      "↥(": 9101,
      "toSubring": 9102,
      "subcategory": 9103,
      "umer": 9104,
      "coe_pow": 9105,
      "tendsto_nhds_": 9106,
      "control": 9107,
      "semilinear": 9108,
      "→*₀": 9109,
      "truncLT": 9110,
      "fails": 9111,
      "50": 9112,
      "esymm": 9113,
      "_eq_sup": 9114,
      "SubMulAction": 9115,
      "_map_iff": 9116,
      "splitting": 9117,
      "graphic": 9118,
      "Key": 9119,
      ")|": 9120,
      "Cech": 9121,
      "Fre": 9122,
      "_sum_": 9123,
      "`+": 9124,
      "gp": 9125,
      "h4": 9126,
      "enriched": 9127,
      "toProd": 9128,
      "CommGrpCat": 9129,
      "equivShrink": 9130,
      "surjOn": 9131,
      "congr_app": 9132,
      "monomorphisms": 9133,
      "Generator": 9134,
      "subgroupOf": 9135,
      "cardinalMk": 9136,
      "racti": 9137,
      "greater": 9138,
      "Slash": 9139,
      "fr": 9140,
      "lambda": 9141,
      "lection": 9142,
      "eqOn": 9143,
      "IsZariskiLocalAt": 9144,
      "apping": 9145,
      "_eq_comap": 9146,
      "MulDistribMulAction": 9147,
      "OrderOf": 9148,
      "pi_div_two": 9149,
      "Discr": 9150,
      "affineOpens": 9151,
      "matches": 9152,
      "zpow_natCast": 9153,
      "completely": 9154,
      "weakly": 9155,
      "primeFactorsList": 9156,
      "fromBlocks": 9157,
      "divides": 9158,
      "Laurent": 9159,
      "xn": 9160,
      "mul_const": 9161,
      "mkFres": 9162,
      "castRingHom": 9163,
      "inducing": 9164,
      "descFactorial": 9165,
      "coeffs": 9166,
      "ellin": 9167,
      "ne_of_lt": 9168,
      "_vadd": 9169,
      "[])": 9170,
      "hitting": 9171,
      "orb": 9172,
      "isPullback": 9173,
      "IsAlgClosed": 9174,
      "ductor": 9175,
      "ham": 9176,
      "neg_sub": 9177,
      "divided": 9178,
      "MeasurableEmbedding": 9179,
      "self_mem_nhdsWithin": 9180,
      "_multi": 9181,
      "plane": 9182,
      "balls": 9183,
      "SurjOn": 9184,
      "tensorProduct": 9185,
      "twn": 9186,
      "decEq": 9187,
      "multipliable": 9188,
      "atoms": 9189,
      "logarithm": 9190,
      "untop": 9191,
      "IsLinear": 9192,
      "IsTrans": 9193,
      "urally": 9194,
      "WithConv": 9195,
      "_single_": 9196,
      "_add_one_": 9197,
      "mersion": 9198,
      "endowed": 9199,
      "Acyclic": 9200,
      "Turn": 9201,
      "tieltjes": 9202,
      "ention": 9203,
      "sides": 9204,
      "conn": 9205,
      "sub_mul": 9206,
      "Continu": 9207,
      "_eq_lintegral": 9208,
      "whitespace": 9209,
      "Nondegenerate": 9210,
      "tendstoUniformlyOn": 9211,
      "generic": 9212,
      "starProjection": 9213,
      "IndepSets": 9214,
      "specified": 9215,
      "truncate": 9216,
      "clique": 9217,
      "isCoprime_": 9218,
      "sym2": 9219,
      "Goals": 9220,
      "skip": 9221,
      "ortion": 9222,
      "three_": 9223,
      "isSimp": 9224,
      "mapMatrix": 9225,
      "_some": 9226,
      "finSucc": 9227,
      "Liouville": 9228,
      "agon": 9229,
      "compl_compl": 9230,
      "seminormFrom": 9231,
      "isUniformEmbedding": 9232,
      "language": 9233,
      "message": 9234,
      "tᶜ": 9235,
      "x2": 9236,
      "toRingEquiv": 9237,
      "IsSeparated": 9238,
      "infsep": 9239,
      "Compactly": 9240,
      "indexing": 9241,
      "forgetTo": 9242,
      "ae_eq": 9243,
      "_last": 9244,
      "contMDiffWithinAt_": 9245,
      "Integrand": 9246,
      "saying": 9247,
      "_zsmul": 9248,
      "oriented": 9249,
      "UniqueFactorizationMonoid": 9250,
      "CFC": 9251,
      "_forall": 9252,
      "aced": 9253,
      "pass": 9254,
      "atomic": 9255,
      "liver": 9256,
      "prodCongr": 9257,
      "openCover": 9258,
      "_inverse": 9259,
      "Predicate": 9260,
      "isClosed_closure": 9261,
      "Geo": 9262,
      "craper": 9263,
      "yscraper": 9264,
      "HaarMeasure": 9265,
      "mul_left_comm": 9266,
      "FormallySmooth": 9267,
      "UniqueDiffOn": 9268,
      "cuspFunction": 9269,
      "After": 9270,
      "toSubmonoid": 9271,
      "IsMultiplicative": 9272,
      "topping": 9273,
      "_mul_I": 9274,
      "uallySingular": 9275,
      "commute_": 9276,
      "traj": 9277,
      "ne_iff": 9278,
[...]
